238
feature_net.conv0.0.conv.weight 216  bedd07a3 be670100 3d0adf2b 3d9f5d37 be2b27bf 3d8679dd 3ef14957 3e4e5b33 be12d55b bf0d4e10 be0aeb2c 3da77d81 be40bfd8 3cd772f3 3c07d59e 3f014e08 3e34dbdb 3bd30d13 bdb58361 3dbd27c7 bda3a762 bea67e23 bde4d781 3d69e544 3e5488df 3e27c020 3bf72b85 bcefa064 be1f426d bda444c6 bd844969 bf312296 be11ddf2 bca9e62a be3653db be43c15d 3e69842e bed43e38 3e4b48e6 be8f184c bf3c18c0 bda2e3f5 3d9733f8 bea1e7c7 bd850b44 3d95d251 be47a4a7 be3ae29d bcdfcf6d be90067e 3d146927 3dcd63e8 becccdca be011784 3e93c5bc bf0cf721 be053d0c 3de1c039 bf0eb179 be16085a be3db236 3e48905f 3dadf3b6 3d689e84 bebfea2a 3d8932f5 3dcceac8 bf4bbbf8 bdae009e 3d1f8920 3d9c2962 3d93d7b0 be314d6e 3e948e29 3e26520b be3298df beeed473 3c9de3db 3d73bb03 be8bb76d bd1221ed bdfaf66e beac9cb4 bd0ddfa5 be76149f 3d4528dc 3e05eca4 bea5e6f7 bec1a696 bdb7dac2 bcbcf5d4 3df7b94a bcdfdfa4 3e10915a 3f08cc55 3e572841 3d1e1888 3e96e237 3e79a8f8 be5453ce 3d782b90 3dfa50e6 3e50e619 3f3a838c 3f066d13 3c8b7ae4 3ebec5e5 be56f179 bea16357 beab5783 3e3c6e7d be86db4c bdc720ab 3e292934 3e1ee943 3dd203bb bd95dda0 be9564b3 bca47279 3e677090 bedaffa7 3d8e5699 3ef66b0a be446df5 bd9df87e 3dd89b2d be6b3b97 be486f06 3e484fcb be4e63ec 3e166d39 3e42f71a 3d369cb4 be0f5b87 ba965765 b94d34a3 3f3507db 3e83e9f2 3c8ab05e 3f05205e bab3d187 bd2fcfaf bcffd550 bd62a400 3e7fc7f8 3f119bea 3d7b13bb 3ea89044 3ec90fdf be896f4e bdb71632 3e8687a3 bdaabc2b b9c4b00e bdf044a2 3d17ab4c 3e8a5f33 3ec994a1 3de846df 3acfed3e 3e821220 bdc9c4fc bd7fdfa4 3e1fe6da 3daad7f2 bdd1bd6b bf29a2a6 3d4c68c0 3dd870c6 be5ee9d7 3ccd32e2 be102688 3e6d144d 3d6e90ef 3e0b1e43 bf09600c bdb6e54f 3e396283 be4c122f 3def95fa be4eaf30 3e16973e be677a48 3d49bd33 bea3fcbc bc5052c9 3da2d02e bde0e495 3e1fd229 bde4ed07 be9461c8 bdd14846 3e206671 bdfc5c30 bda371fe 3ef18fec 3e9c3c14 bda81b75 be1b0104 bed5e610 be138c7b 3eb14db7 bec3a5b1 be274c23 3f559e45 3eb82e8a bddd2fc3 bdeabb3c bd9965bb 3ee3b594 bec7101d be95be00 3e6230e9 3ea45299 3c6b9631 bcbef4ba
feature_net.conv0.0.bn.weight 8  3eaf73f0 3f294238 3f81862b 3f35394a 3ed55a8c 3f854125 3f78dbaa 3eb7622d
feature_net.conv0.0.bn.bias 8  3e2990cc 3f180f7e 3f66498a bf615b68 bcf08779 bf6f3548 beafd78e be5865be
feature_net.conv0.0.bn.running_mean 8  bdc3541f bfb2edeb bf52d888 3f0d79e8 be93c4e8 3fa4f19f bef08f71 3e1815a5
feature_net.conv0.0.bn.running_var 8  3c007760 3f165581 3e52df42 3e00aace 3cf37c8f 3f00a0bd 3d87c83c 3c639378
feature_net.conv0.0.bn.num_batches_tracked 1  46b2e800
feature_net.conv0.1.conv.weight 576  3d5ead28 3d056db2 3e9bdd0a bb6542ee be4054d6 bd47d3ab 3de7e695 bda5f510 bd3d75a0 be13ea29 be4242ff 3dd82709 bede105a bf69ba6f be50953e 3e8524d8 bcf3e6fd 3e56afb3 3e8d7590 3e6c0db5 3da91dc1 bea94939 bf3e27f3 bce9139b 3e9b3309 be53dcdb 3e43236c bbe3e0ac 3dff087f 3d921f25 bd97d938 be0f56e6 3e2cd3a8 bd605948 3e357d2c 3d8149d4 3b4b22c3 be49b200 3b5cd320 bb9bcc71 3c63b6bb 3b1af3cc bc63c2c6 baef197f 3dc66390 3e5f2b48 bc9f2884 3e7066f1 3d1a3685 bf3461c5 3da6cbcf bde8f7c4 bf2054b1 3e14caad be3d4ac5 3d0a888c be197ec5 bcc3ae8b bdb187c5 be3a29c8 be07e898 3db110d4 be1ff9d9 3dce1436 be890abf be277875 3ce3ad72 3e9bbbc0 3cb2b63d bdb36470 3e216365 3e08a39e bde89172 be960162 bec00b9c bde013fc bdd03c0a be24e17b bdbfab97 bdb4cd23 bdce6215 bb941ba7 3e084066 bd35d1c4 3c397516 3dc97346 3d2db350 bd120540 bd082fc2 bde47792 3d689ee2 bdf574f6 bdbfd8d7 3d81aa38 bda1a590 bdd9ac79 3e39c13a 3d2626a0 be12c191 3f0c164c 3e967ae7 bd8194e0 3effc4bb 3e770675 be905f44 3ea58697 bd78b97a bed696c7 bd115da4 be91ff04 bdbe0504 be73f787 befbd0ff be512e6a be593e8d bedde62e be6f8a90 3d70a6cb 3e6578c5 bdd77885 3ee79361 3f21147d 3cd74bd9 3db6fd34 3e65a6cf be200e91 bd0d814a bc30a9dc bd304859 bdae2ecc be2157a1 bdcb13b7 be0cb0f7 bd8f6c57 be04d9d8 3e8c3283 3efe80f5 3d862828 bdfeb0bb bd4b8a5b be0e797c beb0f594 bed95785 be9a5627 bc752656 be0804ce bea1e8dc 3c1b3f48 be3b179d 3d8e52ea bd8cfdad bc12d26f 3e3c463c bd990468 bdb1b424 be85ab0d 3e8cbb1d 3d6156d6 be5e093f 3e9f36b6 3ea5fc0c 3d6b027f be93ec43 be3a5b0b beb5255a 3dee24ac 3db44548 be9e4691 3ee8354d 3efd02b4 be04699a bcc00625 3ccc75cc bd17ea5d 3c8b7881 3df783c7 bd6e65a4 bdd81626 bd0cf4b7 bc826027 3d6ce5e3 bdcee8c6 bd88e249 3d382efd 3d307a0e 3c9e1c85 bdc626ea 3db22809 3e0e8355 be506d6c be9d8911 be879546 3ca2131a 3da3394b be1d0b3e 3ecf2572 3ec082a6 bd455688 be0c399b be146fc1 bebcb92f 3cbe721f 3e81f3e5 be3ff94f 3e2665c1 3e87bacd 3d958b4e bcc5c934 3d8cd104 3e3a6e57 bd673e35 3dbcffdc 3e96e225 3d8c9d9c 3d1b1dea bb1f1162 bc8a0116 3e28bb95 3d8c4a01 3d3779e2 3e58527b bd8a7964 bd2cee36 3cdc5f64 bde0d5e4 beb794e7 bf0908b3 be273844 be6efec7 beb3772a 3def67c6 be2ad1e8 be889cb7 3e3c1f00 be57d746 be806f39 be8525a2 bc823390 be932f91 bea1dd30 be612521 be987991 be58a444 bdf0f0de 3d649e70 bd6cc8cd 3bea2f3c 3d1a0cb5 bda4810b bd1bbacb bccdd827 be025857 bd4d396a 3e252a7f 3dd6f67f 3e1f0f95 3dbe1b61 3e7059f3 bd88b89c bd7fe8e3 be38d385 be5eb09c be947b93 be81a2be be610811 bef90786 be9f0866 bdb06f0b beda8145 bebe6bf4 bcae2899 be18ac62 3bc77936 bdeb3577 becc50ed bdd1a3d5 bd372c7e be0f93b4 be00323a 3d395c7e 3d30cb7b 3ec18d29 be337f4a be806b22 bc5e4552 3d1a79e5 be11e719 3e3917db bd44aab1 3ca40bdf be1774f8 3e1f3336 3eac5ffc 3dd46ec2 3d146344 3ec57253 3eceb4ae 3e8f3847 3e19dbf7 3e50e872 3ea2232c 3e9e8e7e 3e154862 3ebbbc3a 3e43b634 3de43bc2 3e179689 3e0de294 3d31e44c 3e3a5a14 3e554fca 3e2b57ff 3e2d2f78 3e76c85c 3dcebed8 3e48ae15 3efb1688 bcdbf65e 3f3ea160 3f5287b2 3d95c08d 3e399482 3e9cb90b bc2e62eb 3dccee81 3ec45ed4 3d3bd079 bdbcdf0d bd3db371 be835533 bdb72ffe 3dd66c4d bda34906 be8da34c 3e1b3080 bba31fd7 3dde773a 3eea4055 3ebaa11d bbd9c3c4 3e7dfa59 3de1b527 bcf46d1f be0cb727 bc6e46bc be5c764a bce15f84 be207579 bd824828 3d132d3c bde3b289 bdc22575 3d95a7b8 3d93b3ef be3c7db6 bdb79c8f 3cb2bade be7b52bf be47d7c4 bd0435fa 3d649fe0 be570241 bede41f0 be718407 3e9bc629 bce8ae1c bd26dad5 bd09dda8 3ced5463 3d9baa53 3eef9770 3e1cca3f 3c1e0586 3f4480f0 3e8077f1 be68a50b 3d77ac9b bca14541 bddf4e3e be782b78 3e5ae926 3eb2afc1 3f300400 bd67e4c2 bdfd11b5 3e3624d7 bd789ed3 be1f1387 3d81067f bddcc45e bd62c43f 3e3d14db 3d88af34 bc45e631 3e2f78a7 bd79dbf9 3de0560e 3c837c79 bd5dfacd bd7f6fc7 3e2818b8 3e287b8a be6b1e74 3e0a6768 be936706 3dd44627 ba53ab3b 3d8db741 3d4d5c51 3e31833b 3e163a94 3e4940ea 3dffc434 3e0f0ecc bd3f9114 3ed00e3a bd471e7e 3f091e7f 3f83d235 3ebdc403 bcb0f886 be607ba4 3e83caf8 bda6e3ab 3dceb364 3e282cb5 be34fcff bd483bd5 3d9f67dc 3e0b31a7 bdf0a171 bd6edfc2 bc3a8f5d 3df909d1 3e3bad2d 3d15e552 be0f4605 be6925df bd638585 bdb9b55c be8f71ab bde8fa23 bf0475b6 bdeadf91 be081420 bef5968d be1b818c 3d4d3afa bdee0261 3e0396df 3ea805b5 3b987122 bdc32273 be4a9245 bf2a6e5a 3ce4cc71 3e072f81 beb24d04 3df84731 3cbf0c61 be510ba8 3d455be1 bd1ed777 bf0bb2ac be309c9b 3e5f7f7b be2a66d8 3d3c0ab3 bd62b214 3b83d0f2 bd3beb16 3e098ccf 3c1a9e90 be19166b bd1f73c1 be527951 be48d2fb 3ea82fc9 be62a280 3ca30c85 3d31deb7 bf491e7a be964402 3d3943c1 befdc07a 3d8a00a2 3e68032a bde689dd 3e0101a4 3d6776cd be6e5683 3e87844b 3e075096 3e840834 3d067239 bda4f807 be7f9123 be9e924f 3ce273fa bd1ddbd0 bd7d0cb3 3da1f989 3d796c73 3d31fe6f be324b52 bc87139e 3e430ed5 3c22c1b0 3e0cb307 3ec84037 3c6f1de3 bcef69df 3eb277ba be30b3ea be869564 3d724c5c be0e25ab be972dfa bd0e815f 3d2c98c7 be36aa0e 3cf7420e bc303a4e 3caf78cf 3dac487f be89dff4 bea2eb88 3e845f21 bd895cbe be3b31c5 3e472bae 3e072751 bd3eb898 3e594166 bef348ab bf2e9aa6 be871d4a 3e4e4f45 3d9dbb43 3da8467d bd7e2440 bdfac782 bd2ca83f 3cb0b781 3e996589 3e32fd5a 3d37b084 3cd05a84 3dfcb707 3e0bbec2 3dfd6854 3d32ae11 bd4289c1 bf15946e 3dac7986 be9285b2 bf5adfce bd813714 3e02c800 3e2767b9 3dd65d53 bd8eaef0 bdd9c836 3e7dc5b3 3b37aaa7 bd5c1bd4 be82217d 3dad2f98 3e3b206d bea02281 bbab2a2f 3ee7b261 3e80c905 bdfba8be 3e965104 3d9ec032
feature_net.conv0.1.bn.weight 8  3f49908b 3ee20110 3f0ad195 3f6da53e 3f2c1d3c 3fa91913 3f4c415a 3eefae37
feature_net.conv0.1.bn.bias 8  3e0f03ea bf862b7c 3e9029ff 3e6233b3 bfe75bfd bdd85c15 3ff4fd4e 3d3d3520
feature_net.conv0.1.bn.running_mean 8  bfafb49a bf414ab3 3d834faa c07383bc 404d9bc1 401a6224 bff7917e bf54dc3b
feature_net.conv0.1.bn.running_var 8  3f9496f1 3ff8bc35 3dd6926c 40ca6943 4077727d 407fb15f 3f9c474d 3ecbb01f
feature_net.conv0.1.bn.num_batches_tracked 1  46b2e800
feature_net.conv1.0.conv.weight 3200  bd60f1b3 39739d4f b726561b 3d84bfc0 3e70e6db bd08f0ca bdb444d1 be060064 be0a5512 3dd30bcb 3d2d5314 bd5a541b bd26f8b2 b80382a7 3e2e7f47 bc951d80 bd6b2ee3 be318c73 bd8476d2 3d25b547 3e0e531e bb1e4f7d 3d993e09 bd30b6ea 3c88e075 bb96f0f1 3d5b7e5a 3cba9c5b bb5e296c be5a4871 bd38ff98 3cde55b0 3e72a398 3dea6be5 be3b498b bd837883 3e09c596 3e886b25 3e47b390 bde78961 3de236cd 3e94419d 3efa5d5a 3e4994aa bdf5800d 3e749b78 3e555756 3e94d307 3e199494 bd84f530 3d742221 3d7a5f19 3d859111 be27d633 bd54eccc 3d1e85ad 3e9ee4fe 3eb36b73 bde60fed bd5a276a bc97b0b2 3e80afbc 3eb6a50f 3d10722a 3bb45155 be7eab81 3cbc402d 3eaf03b6 3e3297d8 3e552e3e be89952f be1c272c 3e48f67d 3e1d455a 3e85dab9 3e089ce9 3daabad4 3d8c8840 3df59118 3dcf88fd 3c56f1f3 3d858e15 bd6ca732 3cd61ede 3d8ee0c8 bd2a2422 3d35e703 bc0ff844 bd3c1f92 3e2cf9d7 3d8f7341 3d64f760 3c682c3f 3d7d5df7 3d9efbe7 3d3d21c4 3dd0efc3 3d527018 3df8e521 3df65bee bdac0e96 bce2ae99 3e680780 bd1fe24e be895fbe 3e150bcc 3e3efdb4 3f1a9b04 3e439653 be73a6c6 3e7ba031 3ed66a3f 3f50b940 3ef9e971 3da56e40 3e91b4f9 3ecfb547 3f52b08f 3edb79b5 3d9d94ab 3de89f7b 3e468a39 3f057e49 3e5d6008 bddb72e0 3d668510 3db6b974 bd71e7a2 be1f72ad be346775 3ddafac0 3df48b9d bd984c68 be4fd8d3 be173232 3b32d720 3db2f308 bdb478b0 be4731f8 be5a446e 3bcc3007 3e15ee3d bbeae4b2 be72647d bdeb4b28 bdfcdc73 3d929c87 bc8b1d0f bdc9ebf9 bd481e57 3cbe757d bd10b1e0 bdebb2c4 3ad7986d 3df8db78 bdcdd741 bd8b73cf be04467f bdcea569 3c849fd4 be132ecb be7cc1cd be2378bb bbd1631a 3dd4a6ba be936cf8 beb34eb3 be61ea22 3cb268df 3c840024 be013b78 be4b1680 bdfc78b2 bd8573fe 3d721358 bdd5d2e4 beb69be5 beb08ca6 be83905b 3d376f5a becf0c78 bf0e6ccc beee2d6f beca9c72 bdce4542 be2bf465 bee93d8a bf059939 bed3337b be32f669 3dba3fc8 bce2c26d be4dc9c8 be9d2483 be08beaa 3dfc60c5 3c76ec4c be27c2fc be8681ce be2a0d52 3d678be5 bd8acf6c bd887cdd 3d8ee6cd bdd2e916 3d80f1a3 3de6cbcc 3dc8fa57 3e3194cf 3c0b156f 3ca7a2b0 3db37fce 3d8f1bc8 3e32ca25 bdab2d1f bd84cdcf bdfec3e0 3d6ebb84 3e48f889 bcfbda72 3daac0e0 bd9649ff bd342eec 3cb75d2d bd4ad9fe 3e324e8f 3e98ec20 3e10ef01 3d67db42 3de5e9d7 3e270509 3dfceae0 bd6acf20 bdab272f bdf93e11 3e20778c 3db0f36a bd4349ed be1db79a bb48d174 bc3fc870 be03dbed be49370a bec20a2e be8ec7b7 3dc88c2f 3db95400 bda51459 be5e4ad1 bd1a43fc bd68208d 3de7cae2 bdba3268 bdaf261e 3cd270c9 be43b051 bd499623 bea6681d bebaa64a be63a9d5 bd8d21bd 3dbf49d5 be108930 be4d1b22 be9fda85 3d8d4c42 3ec5f7d3 3f07b8a1 3f0146b5 bd82fc3a 3e331029 3ead5797 3f264441 3f2a065e 3df49c8d 3cc67ec0 3e654949 3d0d57d1 3e083d03 bd38f550 3dc4dd49 3e5a8211 3dd4c6a8 3e657a66 3cda9153 be44e158 3dcc5ae9 3d1799b9 3e5800f0 bd8a4ecd be54f93e 3dea5eda 3b3280bd 3dd304ac be3f0ca3 bed25ac2 be2cb9cd bea4aee6 3ae9e0a2 be144b65 be523314 be26ccaa be4b81a5 be514047 bb9179d9 bde14e9c bd3eb406 bd5db38c bda8da86 bcda2b20 bdc47058 bda3b924 bcab2613 3b5cf9f4 3d3b512a bd56242d be2f187c be21c987 be468c39 bd651ef8 bcfa8fc3 bdd63b55 bdfdb853 bdc860b4 bce96df4 be14d406 bd1fc37e be217de1 be1f18da be26bbea bdd29780 be629ac2 bed5794f be9f98d5 bdbc2dd9 3c7935c8 be34bdd7 bea77fc9 be66e8b8 3d833b80 3e1a0cb9 3c2bb47f bdda13b5 3cd6ac2b 3e5edaf1 3e976e02 3e1a9d6c 3e4da4df 3e8559cb 3e6bfe0b 3d09019a 3d2d8694 bd8e8502 bd4dc2d6 b8eb5e25 bc229c05 3e61050d 3e51811c 3e81404b bdf5237a 3da40c34 3eb2fa2d 3ef2bda5 3e92ca55 bdf98201 bd678627 3e24d712 3e4533dc 3ddcd9fd be1832c9 beb26cf2 be299add be343207 be0ecdad be9a0874 bd4da894 be136cca bd29598f 3e0fa2af 3d99b305 be626b9d beb89ecf be3d7cea 3de5a575 bc2567cd beb99b09 bec159e5 be5c05cc 3e1a7fcf bd738bd7 be8b2c03 beb92bd9 bdde9f8a 3e2aec97 3ddc269b 3d97a6b7 bcd6f750 3e108308 3e7dc8ba 3eb41c3f bd3c7dbc 3e86f3fb 3da76caf be1fc539 be2c5ae7 3da5825a 3e935a0e 3de9d055 be94599d bec97dc9 3db4f792 3ec760da 3e1f80a0 bdf5fb1c be804c7c 3b9a1f5e 3dadec66 3dd9aeb3 bdc49d81 be0310c3 bdac3d52 3d3e4219 3d2ec226 bd72af12 bd801cd2 3de13107 3e60e85b 3cb68bbd 3dd6dfdd 3e3552ec bd822dcd 3da005a9 3bd0fd5b 3e479d95 3e70d8ab be228cdf bc76e67d be3f7e8c 3df74194 3e3ef58d be0f92a2 bdd3428e be9f7c2e 3c02bc05 bb0fc3b9 be3f53dd bd9c0670 be06a84e 3d62c8bb 3d7258e0 3e5f57e5 bbe00892 be403cb7 bdd10c4a 3ebe9a33 3b83b98e be0e9f57 bee40c72 bf020d15 bc8d7af0 3d236fed be7cf089 beb24109 bebb49f1 bdda87f7 bd643023 be19f081 be2cf21b beeb700e bde501b4 3dd6778b be09ed4e bd86a6ba be3f3d7a 3e2f2be0 3d9559fe 3df0719b bdec2793 beb7ce9c be6add7e 3e075c05 3e811063 bcb2fc92 be897739 be4841b8 3e81f056 3eb1bdd0 3baf6e67 beb4afa7 be53bfca 3e81eddb 3ea313dd 3d6913d4 be7f6827 be27e1d3 3e14bbca 3df62597 bc98a408 be167883 bd461adc bd93befd be34c470 3dc47545 3d989543 3e3e1749 be4baaf7 bea0deda 3d96b6cb 3d87a947 3eb6b519 be77cbb7 be61ea68 3b8547a4 3d2785a3 3e877ac9 be9cdaf5 be93bb47 bd5633c4 bc68fb2f 3e5dd7e3 bea87713 becaa56e 3b90fd49 bdc64dc7 3df04493 be317714 be58ecf9 bb5884a7 3ea3918a 3e40a070 be7286a8 be24eb6d 3d9dcb4c 3f018ace 3ec58a02 be8b370c be89b129 bd38c0d0 3e87febb 3df12b68 be808885 be62f5cc be3fb958 3e146986 3cf42681 bd17de38 bd553268 bca935de 3e539d90 3e19c298 3e3de5bf 3ea698c9 bdd179d8 bedebf7c be971789 3e4af06e 3efa5e66 bd6a7234 bf1f1183 bef87e04 3eba76c0 3f28115f 3da64a04 bef16f44 beb6ce82 3ec6a862 3f25567b 3e03c9a4 be8892a8 3d38c93b 3dca23c1 3ea2e777 3ca05d9c be863aac 3cbdc17d 3e5adcf3 3db4c5e8 bda28123 beb6c5ee be81c958 3b526c75 3dc746be bdda1215 bea6d950 bed4594e 3e417005 3e0c680b bd2e0b30 be9897cd be846915 3e17bf54 3d03dc4d bdbe42e3 be13f8df 3c727c16 3e291a49 3d2a3e1b bd5e5932 ba3b7973 3dcfa64d be543c51 bde2e078 be4665d6 bd4fcae0 3d026044 bd9dcaf2 be0aafe4 be0e224f bd75cca4 3d4c6700 ba8f382c bdf16656 bc995a08 bcaf9937 3e0e0071 bbbbb42f 3a8368d7 bdbd6021 3c6ef733 3e0aec19 bdb699c5 bd4fd4f6 bc2d779d 3da79def 3ce0a865 bdb96c55 bdc8d09c 3dc17c12 bba38891 bea1deb7 bd768a53 3e23b75b 3ed93afb 3e509c55 be388fed 3d7347a9 3eab6c3c 3f2d5735 3ef05131 3d2d1e84 3e3a9de3 3ee3065d 3f38d9b2 3ef39f52 3d445194 3e07eee4 3df61726 3eb6714b 3e04ad4a bd858786 bdb8d8ae bcccd517 bdf924dd be1d34bf bc023758 be60aaad be69c018 be58fc52 be8c590b be819291 bc96a9bd 3c134c77 3c29234e bd0bf58a bd93d984 3d983e1b 3e05132b 3d8c28c0 bdaa3387 3d5ae2bc 3dc1b284 392d650d bd8a2032 bd3417f5 3cc31e95 3c2f29ad bc3535c3 bc79da24 bdda4db1 3d9f5867 bc7e903c 3d9780f2 3d3c7d86 bdb9cbd5 3de98319 3c3144ba 3dbf87b3 3d7b32e8 bbb4bd4f 3dc9ef9a bcba54e2 3cd16fff 3d4ec42c bd399cf0 3e477b57 bd6cff34 3dd3b69e 3e214d7e 3db5240e 3e85d608 3d86f09b 3e0d48cd 3ea26d17 bd6c1c1c bef8083d 3e9efdd2 3f12df43 3f563c80 3e82d679 be9a8538 3ee8f801 3f487fc7 3f869087 3ee70f6e bdb9e482 3eb78794 3f0b7777 3f5ea2c4 3ed44aa5 bd404947 3e09057c 3e39a85a 3f10f3f6 3d07b5d4 be90acf1 bd9bc4b4 3c45d653 bddf1fe0 bd7839d2 bde02e50 bd768e8b 3d7c9632 3d530a17 bd6d61b2 bdda9fd1 3c98629f 3e13ba76 3cb12c32 bd21b593 bde7cfe8 bd362071 3de6a759 3ccf6e54 be15d4bd be027320 bdf35951 3de9a8aa bd0b82a2 bde4dfb7 be181d6d 3e3faba0 3d8dd6b3 3d216e2c be27c400 bde6051c 3e2529d5 3e47b324 3d879ebe bdf7a61c bcc70ed3 3e6b2c34 3ea36f85 3e226380 bdd0fe62 3d4b9701 3e310aca 3e5b4e39 3e3e6b5f 3d3e4a90 3de61226 3e44085a 3e70718f 3e6109e6 3c350615 3e33248b bce69cbf be474af6 be5d7d95 be199f97 3d01a5d9 bea8f6e6 beb60444 bee43537 bea745d2 beb2a327 be8bba74 bea5797a bea364de beb4a767 be8c1790 bcf339bc bd5e6064 bdc836a5 bdfe6a2d bde2f7c8 3c49d467 3bae9f4a bd21e241 bd689237 bb41e427 be235c90 bdcd4b38 3bf9996e 3e467dc6 3e109f51 beb940c5 be8b3d6b bd65839f 3ec44858 3ec7359a bed64c2c be9ed747 bd1f2dd7 3ebc69dc 3ec3c9a7 be881568 be8f5c59 bd71dd67 3ea0c7f0 3e501fb5 bdfddd1c be09aef1 bda03260 3e21d776 3dad6d4d 3e02cd98 bc30a57a bc9b5f63 bdea2c70 bc6b22f2 3e061291 3cebd25e bda0e2d5 be37e0ea bcd462c5 3e0a92eb 3dd013e0 bd8ee203 bde1d8eb bd42748b 3e275515 3db5e134 bd486b5f be2b3f9a bdeedf35 3e0baf48 3db03469 bcee1b3c be0e7db6 bcb955d4 be14cf60 3dcb7877 3dbd8510 be4b5ad9 3e0a36aa bcd8af14 3e1a8ed6 bcd2d1d5 bedfbf97 bc8ec494 bd7053da 3d49b2f3 3ce5aaee beaabe95 bd43aa45 bdd0115c bda23d29 3d9d9f56 bd7fef1e 3e10ad64 3b10c0fb bd09c7d4 3cc6e1bd bdc3397f 3d9494bf be8e2930 bd71c327 3d11c091 3e79a8f5 3ebb5830 beaf6542 be7194ec bdab2c10 3e947b9b 3eee9ce7 bf04fa75 be883bd8 bdc2b6c6 3e9e16d7 3f02dc4e bed36b9b be989b5d be0209df 3e86650d 3eeb7c79 be92ddf9 be13793d bdf454cc 3d25611d 3e7b436d bc2b2f1b bdcc6127 bd9faef5 3d20d5a7 3c954998 bcbafbc1 be1b4f5a bd9cc343 3cad56e3 3d289489 3c77054d be0b9a18 bd65e7f7 3c5db628 bd84baab 3d129ba3 bc6500d9 bd49c838 bdd21b00 be569071 3dddaaaf 3da506c8 bd709e57 bdea5eb6 bd32163d 3e6438e3 3e4e38a2 bce50a52 be9f7665 beba12c0 3ece0ccd 3e880fdb bde1f057 bedd9b77 bed622bf 3efb6fb5 3ebf0cc2 bd8ab38f bec014bd bec71d8b 3f0e6f96 3e8ebb14 bc06663f be80f691 be93021c 3ebaa353 3e854c3a 3d441c01 be43eaab be67e4da be40f471 be8b3399 3d533fca 3eb12772 3ec844db bed87d85 bed32eb6 3dcb858a 3ee65957 3f282cc4 bef6286b bf07487f 3d8e338b 3eee564b 3f16d883 bf01e2fb beeef5a8 3ccb1cb4 3ea9b850 3eb454d0 be6f068d be9510f0 bd493818 3cc844fa 3e00de97 bd3f5f58 bd95a50a bcb7d20f 3cf36ad6 3e00861a be54b4e2 be61c263 bd8d3adb 3e484ef1 3e2e3101 be96efcf be8a3cd1 bd95cc86 3eaa0a42 3e98c715 be12a8d4 be59e85b bd67a9ed 3e51ec19 3e07f431 3bf069ed be05789a baf449c5 3dd5ee56 bd100a6d 3cc72de6 be35d6a1 be080012 bbc6d5f8 bd93d19c be8c2e90 be7d536e bc30951d 394c73cb bdf24a6c be20dbd4 be008e6d 3e6fe41f 3ea5b3ef 3dab1b51 bda19b85 bd263aab 3eb77380 3ec38012 3dfa62df bd286015 bddd0680 3e0c8408 3e1a6837 3cd90b24 3dd45507 3da4a618 bd154ae1 bcd4b405 3d16b7ad 3ce7a094 bdee93b8 bdd97442 be756c94 be0ec3da 3e1a2141 3c1a0c7b bdb60080 bd36a0ce bd2be67f 3d9f369d bdb6c549 be123193 be25a349 bda307e1 3e0a96db 3c924a12 bcb91055 bde830dc 3da064e2 bce7a529 3e18ddf0 3e2351d0 3da16b86 bbb0ca9e 3bcd20be 3e94e70a bd43cca9 bda97669 3b01e213 3e38068a 3e6e50c5 bec922c5 becebfe4 bd22783a 3e07baa9 3e396712 be61c8af bd337305 3e55161d 3d8cad2a 3d748226 be29e95f 3e0be7d0 3d095bae bee0d4b1 bf03689f bead622b be8b0baf bea0506d be5d2e76 be33ed4b bd1e845c 3ce66e29 3d87b26d be774f09 be101e83 3debf488 3e46d850 3e2d8509 bdbcfc10 3ded8e59 3ec4e1e3 3e976a82 3e596554 3d780616 3da41de5 3ea57b57 3e90726e 3e190f66 bd13dca7 bdfd797f be489c9a bd7ca82c 3ca254b1 be0f1f1d be22141c be628f25 be37fe1e bcc42b44 bb7cd7c4 bdb80fae 3cb8e868 3d98702f 3e9103b0 bb8a5430 bceeee87 bc24c8d1 3e5c18fd 3e9eab0d bdbb0964 bde0db59 bcac8457 3d02d0fb 3db57da8 3eb6171e 3e8e6d18 3ec12351 3d9d3eae 3d979b34 3ef14b50 3ed67a10 3e805f47 bb968e1b bdfbb187 3ea89994 3e27f1dc bdff0843 bec4a121 be99d7c8 3e426f8f bd507013 bedeef88 bf2a4004 bed6fec7 3e224bc6 bcb9f493 be70ceea be8ecb76 bdcbf063 be2dc1a7 bea1fcba bee26bfe be8c9938 be65169c bec64028 bef0c227 be855869 3d034bf8 bdbc6fbf bef117b9 bea7cc6f 3e2cb3fe 3ec53017 3dbaf72c bde8e2a6 3d739a04 3f1b0810 3f55efe4 3e88d03d bd02d1f5 3e20bd06 3f00b0f3 3eec6bcd 3be7cde8 3be305c3 be23c5a8 bdf048fd bde165a5 bdb60c90 bc547b8f bb5e6374 3d72b2aa 3dc624df 3d38d874 be1282e7 bdf3d13c 3dd8c90c 3d82d155 bde8d899 3d8b8964 3c964c81 3e82eebb 3e74681e bc38220c 3df657cd bc108c54 3cba86eb 3e32db83 be0ca3f7 3c89cd0c bc9267a7 3d63c45e bcc503fa bdc42294 bdf82a72 beaa5e4d be1bc0f8 bd259e8d be2f4831 be3f5854 beaeb256 be422028 be481624 be874b2e bacf38f7 be3ebd6d bded4437 be1275d2 bd8ab4c1 3cda6765 bce82a2c 3d850fc7 bd933514 bd35c25c 3e1addfc 3c9ac5b2 bd8e2d21 bdf0fb4a bdab91d1 bda083a8 bdaa7387 be41f82c be34ca7e be6ec509 bda40b2e bb59247b be3b6b9d bdcfecd2 be8523f3 3c793ccd bd04d528 bdbca691 bcd42c2b be38984c 3cd780ae bc6f5f75 be21a717 be6c6df6 be4d415c bd024788 3e1d24db 3d0055a9 bdfa8097 3dce338a be4722b6 3ec29dfc 3ec3238f be433ad5 bd6df542 be204e12 3f08ac59 3f69eefe bd1c50c3 be94ad00 bea2c61a 3e1d695b 3f213ec3 3d7233c9 bbff47eb 3c913173 be0ba9fd 3e03f792 bb7bc107 3e15a0c6 3e8c35d5 3bbbf075 3df375a3 3d749368 bb83e8aa 3e7f7e47 bd407eed 3e10e86f 3a9ea204 bde4786c 3e05fe6f be72dd6d bd9c1ed3 3c3a0b4a bd88cbfd 3eb61d6f bd57c040 bbe1c451 3df5bd00 3d99826c 3e73b54b bda1a3e7 bcd5e68d bd5225c5 be74618e bcdc47d1 3d63d005 be2d4754 be032e2f 3c96f5c9 bdda1691 bdb688ed be954792 be8468e7 bdf9d418 bdf51791 be90718f becf0c82 beae8247 be903af2 be221d4e be66eadf beb89009 bea95aa4 be793edd be31b2fe be6ac86c bec40aab be743c5f be18a334 beb4b826 be8721ee bedc6998 beb8ef47 becc1a53 bdf982dc 3da0d852 be2aedb7 beb3277a bebbe518 3e56ffad 3f28fefe 3e9848b9 3d7a860a be04bd14 3ec4f0d0 3f6f6315 3f312b64 3e823870 bd4f61a5 bd86bacd 3eaa2c71 3ea1f6e0 3cdd9226 be3ca771 3e5509ea 3e224dcb 3e826e14 3e3e5ec2 3e2dd0e1 3e0f5ccb bcfc9c0e 3e6665a7 3e206a2f 3e7f2a07 bba8f974 becfb83c bd630e9f 3dae1bc2 3e30218d 3df695c9 bee9fa92 bd9ae8a6 3dea376c 3e87d380 bd53eb54 beeb5a2e be700103 bdd1a6f7 bb0aa3e3 3da1a4f2 3dbbdf39 3df0bf17 bde067e9 be94af0e bd889574 be0c1705 bd9f135d bdc28a47 be60a109 3e1ca5d2 bccbcc6c be15514f bd3fcfe3 be6f6590 bc7b9c9f 3e074bc0 be0986ed be3d1b00 be9a4c41 bbd48889 3e6566bb 3daacb92 be108b48 be8043d5 3d0ffa88 3d97b99d 3e49c0ab 3e7dac9e 3e1ddc27 3dc44a93 3d9fbf9d 3e000b13 3e711916 3e4e38d2 3db38017 3df66160 3e291e9d 3e7c2c3a 3e53f85e be408af2 be3f518a bd94fae1 be3f4254 be33bed0 be0f8390 be4c4707 bd80f740 bd84a6ef 3d4a463e be2e953f bc4cb5c6 3e15f92a 3ebbe4c5 3eb8922b bdd9047d 3dbb95b1 3e85ecca 3edd2c2b 3ec2edd4 be4fb38b bbeb73d0 3d801b15 3e5fd0d0 3e433ac1 be366f04 be1c344f be2b149f bd9d1630 bd626317 be0a4b0e be96e4cb bebfd908 be937ea9 be40e3c1 3db3f259 3de098e3 3e719c89 3cec3ab7 3ceef3c6 bda06e94 3d390712 bce80f5d be239bf9 bec3e8b9 be55b7be 3e8541fa 3deb098f be25b448 befdf3d7 be75e66a 3e04110f 3e4012d2 3e279a15 bd377279 bdb93826 3cf2022d 3b3afd03 3d2f2b05 be2a2eac bdb94b89 bd6f061a bcf24dbd bd560f7c bdf75316 be205d8a 3c21fe37 ba91fd5c bd37955c 3ce79542 bdb2f48d bd2ffe1f 3e1ac92e 3bceeddf 3d744042 bda15474 bdb9906d bbf8662a 3a2f67a1 bb97cb72 bbf7d755 3d5d721b 3c2fc0bf 3d9146e1 3dc7a43a 3e257f59 3eb8d47c 3f2a5fa6 3f292ecf 3ea3bd59 3e834a10 3ec3db67 3f37057d 3f3db03b 3ecb53b1 bd86a7a3 bdb809b5 3ea3e16a 3ebd82c8 3c4e74f6 beccf39a bec2ca8a be38de3b be45ea24 bec77812 bf193850 bf3e648e bf091027 bec90b74 befce6d7 bc874506 3c4d9aa6 3d38ab57 bb32099c 3dce4eb4 bdb155b8 bcabce7a bd4c5564 bdcb9909 3d2da324 3cde84c6 3d2b46be bcbf8e2e bd16f187 bc3ff749 bd24ed6d 3e12481d 3d71811d bd939879 3da000a4 be0b864c 3d45f565 3cfd5aeb bb3f2254 bdc8bc41 bd8701d5 3cafbb17 3de88d40 3dee40f4 3d5fe203 bda5b9d1 3d35f1de 3e81a108 3e1b0bf4 3d9b30f8 be15c33c bd99d0d9 3e83cf30 3d440a3b bc063792 be1660ea be4dec4d bd7ebe5d be64daf2 bdbbfe6e bddedbe5 be1af835 bbba6761 3b491fdd 3dd415a1 be4dc3ae be1f389d be061827 bdf33c28 393a2ee7 be455e9c bdf82a14 bd8a84be 3d50fcfc 3dbb2d73 be7e9b3f be69f699 bd1d9b2c bd953708 3dd6d100 bc3d9612 bd833545 bdd3e0e1 bd188276 3df9b81f be1aa0ba be637fb7 bdccccd1 3c0bcc86 3e4a275d 39d2629b 3e73498a 3e471ea5 3e4218ed 3e6ac8b5 3ccadd7b 3eb6989c 3e588f1b 3df1e41c 3db933d8 3eaa480c 3f2c37aa 3f03b2ce 3e332948 bc8e3f9d be4fe33f 3e8aaa3c 3dd029ba bc094728 3c125cbc bdb86cc0 3d29e9dd bd10343d bd531987 3c072df1 bd61b6ea 3d844f3c 3dab17e7 bdcffd0e bdf375a0 3cd81e8f 3d9c02bf 3ddff68e bd2116ae be2a67f2 3ce35448 3ded1cf7 3e1c5bf9 3cc21eb0 3ce7b44e 3c5eaa6b 3dfcaa05 3e1b3b45 3d299341 be28090e be381ff9 bdd44df7 bd15a754 bd617083 bdb3ca66 3d05cce6 bdaedce2 bcb66655 be6c35c2 bdc8f0e3 3d8b4b28 3d1f9638 be5ca70d be66c841 bd83538c 3dcaa6d9 bde403d1 be41031a bdc76848 bc08a627 3da57e02 3d2e590d bd1aef58 be3ab5c6 bc182839 3db5bc12 3de9e581 3d6e43ab be53dcca bd995ce9 becf54e7 bdf13219 be9fd3eb bf08c931 bead2efe 3e0dd9cc 3ee88807 3e987a94 be247476 bc83dfb1 3e57df1f 3f40c2ca 3ebede63 bd86aad8 bdeb74e9 3d4766ee 3f1f39db 3e73e526 be8b63da bea58f44 bc1bfef9 3ea8e259 3e0acdf1 be557bf3 bdb2beae bcb5ad2e bc476cf1 bd25a411 be46b346 bdf87678 3c9f8d3f 3de65e6c bb995a5e bd1cac87 be1d94ea 3d0dd73a 3e17c7e7 bc4d2b4e bc7b8003 be491161 bdeabd1b 3cb002bb 3c952a41 be61f217 be6f9739 be2de424 bdface98 be4a55e6 be8a935c be935bb7 bde55a7f 3dac81ef 3ddd11c1 bdaab1da be42e1fc bcf65620 3d9a56f5 3e070285 bd54faf9 be166d29 bd7033b9 3d5f2b70 bd4dff12 be4d179a be28b638 bca768a8 3d29a04b 3d97b870 be03bed2 bdd2d103 bd8fb3df bc4a1d2e bbb35110 be3ea711 be749143 bd00fda9 3d8ef443 be18ce76 bde48a81 3e472528 b8897d87 3da0aa7d bce22bb5 bd22c5fb 3e39e9b4 bd2fc9e4 3d9c67f2 3d199553 be7f024f bd7480d9 be22eb87 3e06c950 3d8da153 be4a249e 3ca6b0f0 3c20c566 3dd3667b 3d58b35f be0d3825 3e115e85 3b3a8fc2 3e8f8e99 3e6203bf 3d4a47c6 bcd159c3 3e8c1358 3f1a1dd9 3eeb30f3 3e6c7dec 3dc56db5 3ea8c5f6 3f2488c8 3ed69cc8 3d2ddb6d bd0f2b34 3e4b5a5a 3ee3a525 3ea6a49f bc46263e bdc59d51 be0befb9 3db04be2 bd74b5d0 bebd12a9 beae59d2 3ced767f 3d1baa1f bdedd673 be774f63 be0653bd 3d4f5758 3d9982de 3e0713d6 3d33cca6 3d42c0ec bd6bc7f7 3de50334 3eafb589 3eb5ee2c 3e14a402 be10b8c5 bceb17bd 3e4a9517 3e81d0d7 3df6a16b bd09f868 3d79989c 3d0f28fd 3d3369c7 bd9e4e59 3d660b71 bc1edfc6 3debc67e 3dd7fc47 3d4c8d1e 3c928349 bbea1ad5 bd0712ef bddeea23 be270336 bdafc784 be6151d5 be5956e2 be899b88 be363890 bd495a66 be890b9e bec68bf9 bec1fb89 be984a1b 3dfa927a bcb46e23 be343ebd bda394dc bd7484a1 bd9d24c2 be35ba7e bd5f41dd 3e3c7007 3dff2f64 beba9cb3 bedd8f1f bf2ac056 bed1c95a bebbe977 3e9b5d97 3d9d9703 be059357 bd530405 3d7ec611 bdd065df be3fdc2c bdfeca42 3cfebb39 3e0e947c bd98553d bd753b92 be115016 3cc64377 3df2b75a be2bdfa6 bd3a543d bdd3f394 be6ff1ca bddadec8 bcdfbfea 3d81be42 3dc5425b 3b74e2e9 3e048135 bdbbda0a 3d1bba79 3e5ec1f9 3e5c3134 3d758dcb be20c84e 3d999e75 3e3f62c7 3e017857 3df06789 be49dd0a 3d022e7e 3e475199 3e0b0a1b 3ca84351 be5eb999 be3b2621 be611ad9 bddbc652 bd95e89f be13a3c7 be458ec1 be32798c be42ebff 3c9b88a3 be4c15bd be85907d be95ff52 bde76a19 bc6396f0 be5b4b6a be85d803 be3fe996 be2ff894 3c013e2c bb284aca be0fa215 bde4e4c9 bc15feac 3d6afaeb 3d519f3f 3d8d6159 3e7293ca 3e1b1bde 3e1b60b1 3d8caec5 3cc1c9cd 3d9fd1a7 3d50d572 3cb495dd bd40fb72 bdb5e5ff be38ef89 bdd286e7 be08b06d 3c1fb615 3b2677bf be6e691a be1a49ce bd8f4dbd bcc2ee12 bd80d111 be14a3a3 bdac4e4e bd2ee534 be05a582 be0e961a beb5c025 beb8a03f bebdbe76 be321650 be1a141e bd82d6d9 bdbbd997 bd789d8c 3bcf7927 3e27da12 3e862cc2 3e448106 3d97323c be1d5e5c baaeac4d 3e93da15 3eae547f 3e0ded3b be87bef8 be65d2bd 3dbfd6da bd216c60 bea20306 be5ed1b4 be808b67 be5a0ec1 be8d6d43 bdf9e9ab bd87d012 bdbc9431 bd9c505f bd639166 3c83d0c5 3d81cc29 3d4cb433 3cfe093e 3cf3c339 bdb75dc5 3cf71a83 bde23eff 3d999898 bcd3698b bdf33940 bd52d4e2 bdcc406f bc394235 be160226 be0e3ca0 be3ca24c 3db2b150 3db71f9b 3d884eab 3dfcb31d bd0885e4 3e9fc36b 3ccee4b2 3d34e76c 3e158291 3d85c21c 3e8468bc 3e0b9b49 3da6bd25 3bae2e77 bdbc1746 3e2aab25 3e18f3c3 3dccf6ee 3df92723 bdd7bebf 3e1159c0 3e0a390d 3d235dc8 bccdfd7f bc98e416 3cd3e1b2 3e196fb8 be22c7a8 bef0f91e 3e2b21e2 3e36e816 3ec06c0e be1c4872 bf2bf224 3e6593b4 3eabfb00 3eb36500 3d42d7b6 bee81d61 3eafc725 3e8768e3 3e9a0c80 3cae5b3f beb47177 3dea25d2 3e088d6d 3e1ec66c be134199 bed42b41 bdbde8c5 be0535b3 bd9ffba8 bd3bdc13 3d9feccb bde5febd be81d775 bec9fb39 be707a7a be3ced79 be1e575e be12a554 be8a743b be502574 3d4f0d85 bd32e4ed 3d3cb4d5 be00f991 be17e75d bd99d387 3dcf3ac6 3e497b41 3d830524 bc469a58 bd21969b 3e1b42f7 3dcac57b 3da78ae0 bdad6c73 3d4ecfc3 3e138d43 3e5f7df8 3e0f983b bcb4d999 bc0d5cf8 3df3f407 3e288275 3e4c5bf7 ba40182c 3d2c19eb 3dac9926 3e18682f 3dbd7271 3c8f6912 3d22d1cf 3d3102f7 3e4f6153 3d81eba7 bd5e54b2 3d2c9f25 3e63d1f0 3e98fe5d 3df2d053 becb2ad0 bf1fe511 3eae284c 3eec0701 3e4b7181 bed1320a bf39c28c 3ee0ebdd 3f0dd4a3 3e87e4cb beb20cc2 bf25b491 3ec8a947 3ee9bd8b 3e2a5bfe be5b6856 beee673b 3e175675 3e99e824 3da80da1 be82f534 bef39490 bbc7074e bd4da78a bd5905dc 3c84bc4c bdff1722 3ca61605 bcf0c66d bde0ac1e bdede709 be436d69 3d17d13c bd8dac07 bd455ce6 bdbb233d be0c8ca8 3cbcf250 bdcd86e0 bcd7048d be26cfa4 be47942d bd69de8c bd8fcbb3 bd4bffaf be3e6568 be3f8093 3ca75fc3 bd59df44 3d20d68a be43e803 bd47a5ad 3da26198 3e65790c 3d17b536 be177cae 3dbd05f1 3debfd21 3e28b8b1 3dee14dd bd2d249f bc44861c bdd330e9 3de848ab 3ddafd77 bd660c24 3d4f1f47 bd3168ca 3dcfeee7 3c8060df be035c38 bde5b808 bd38e67a baecfb84 bdd63a3a be0c54f7 be212d17 3dae1845 3e0a86a0 3d1048a3 bcd58125 be117622 3e8d5867 3e97d135 3da93352 bd0bbf08 bd90ab49 3ea21c02 3e44c175 3da1a0f1 3daa6887 bc78e91c 3defa1fe 3da3d75b 3d9e7e55 bdad66fb be88272b bcd008ba 3df8101e bdd0c00d be7f38e0 3dff2c96 bc0dea5e bcde66d8 bec3bc9d bf0623b8 3db64ca2 bd9717c5 bd0508ad be8a084e beb9dca5 bd66542b bda2dad5 bb11b545 bccb7d9c bd011883 bdf09c13 bde29546 bcc49918 3cfa1470 3da46280 be057061 be0ed40f 3da79de1 3ddecb13 3dc0fd2e bd8b319d bca96b00 3dba7753 3e32cc20 3dfaa5ed 3d6dfe25 bdbf0ed8 3cae087e 3d035962 3d330880 3be9888b bde1491b bdc2f6d1 bd012541 3d60a6a2 3e9b8301 bec0bee5 bea5f39e be73a18d bdd07719 3d11095e 3d46b376 be387f20 be38f48f 3e77b987 bcc7bbeb 3bec30fd be803315 be425b90 3eec74fe 3d72aecf bd75d779 bd8a05ec bf288492 be48933e bdc48eba bcbe4bdf bdd3339b bf1b0b52 bee49523 be153c22 bd971f3b be0908a6 be7fe72d be84e59a bd202cdc 3e21f1a3 3e29d0f4 3c7600ce 3d106405 3e98d16a 3e2ae7ed bb88a923 be83d4eb beca1f98 3d73aab2 3d8db88a bbb83eac be890b02 bed156db 3c9160cc 3e1077bd 3e5f2980 3d22259a bd1e5fec 3e303915 3c38d05c 3dbfc627 3e005275 3d7c326b 3e0e1587 3c4a6816 3ca4ce21 bd2389f3 bd671676 bccf1e1e bdbe231e bd3cc616 be596024 be789539 bd3b395b be4aae20 bdbf2cc1 be270cf7 be5ee82c 3de04f7b be3f570d bd99356d bd80ecba bcb687ce 3e80e097 be0efd4f 3d990034 bc393b47 3c8c5bdf 3e580c82 be67d9ba be279f94 3dbb18e3 3d64e573 be9a6d4d be0b85b8 3e2c9173 3ef7c538 3ee208cd bdfb7e8c be49b6aa 3e938dcb 3f1b1287 3eab244e be33d664 bb989958 3dfee767 3e21ecb9 3beec9dd be5dfb1e bd71a8f8 bc6eb721 be72f616 beb8cee3 bea1f8fb 3d9dd704 3e1fd2c5 3c8aefe7 bd994d25 3e3f6088 3ea4d6d2 3e118b6c bec44ce6 bef902db bc6d5dad 3e6c6c00 bc9b9627 beeb93c2 bf04df25 3d24fb0b 3e827f5d bd75763d be1543b7 bd7f6368 3e4a9662 3e94b88f 3e32c015 3e95b822 3ea046d6 3e3d43e6 be0e3013 3e65fb92 3deb2ca2 be279086 3de0f6f8 be1c8953 3e5f947b bda9f8af bf134f75 be2c19ed bd89acb6 3e542e1c 3e2971b4 be6e2034 bdb9c200 3cc4ea7d bbd6b348 bbf5a3a5 bd36562d be0c995b 3d75cf91 3cff0adb bce323e7 3cf47256 3d8193b3 bed51c15 be8bc3bb be28cabc be168cd8 be8a44bb be83bea3 be305346 bd7fa8d4 be0384a1 be35d532 bdcc218c bc62867d 3cd83350 3dde7193 bb94c4cb be71ee08 3b1b291a 3d3aca79 3dc7a141 bd98c6b6 be86d840 3d14c769 3d3b3856 bd3ce424 bd83fe96 be5713ec be4f9c31 be38a549 be54bace bdb17de0 be265cb2 bde26874 be0ce8f8 be65ac02 be7d7a34 bdea9756 bc154a0b bd3d7b9a bcf2ccde bdea99c1 3bea0021 3dfbe291 3dd6f4c7 bb72bdc2 bd914fe4 3c882cb9 3e1d991e 3d8215c8 3a2b218f 3d8e4fdb bec8f523 bef42b1f bec0cbd0 be37a9ad bec27e25 bdf7e1a9 beb2272b beb0022c bddc4782 bf00e2f7 bd8dd6a9 bf085aba bf32e3a8 be9f4c4f bf138312 3d97899c befab5dd bf0e036f be59bb67 bf3b9529 3df37cbb be07187b be96c4d2 3de2854a bd8d3eaa bee180a5 be86e0e9 beae393a be66e273 beaac685 be5493fb bd7b9f01 bdb28784 3c04e84d be46725a be1b6bde bd93dcb5 3d960d02 3d004612 bd42de34 3d908ce1 3e643b4c 3e59f67e 3eac9d77 3e016fe3 bd4c42ed 3e0d5770 3e90e129 3e5cf8f5 3c35707a bc941230 3d6662eb bd5a9bbe bdf761a9 bda5fe62 bcd9e7cc bd939e06 bdf94afb be214aee be28bf7e bba58cde 3d196f1d 3d06187a 3ccb234c 3d4d4b0d bc460d82 3d89fd1b 3c6f9f31 3cea75bb bd43425b 3d6c97b1 3cb25df5 bd2cdd34 bd1edcbb bd896e34 3d9297a3 baa0d8e2 bc2caef5 bca64d07 3dd48a4e 3e0563ef 3d1657dc 3e11e47f 3cae6c11 3d669eb6 3e0d93c2 3d28b232 3d4d1686 3d716d7a 3daafdd2 3dd015aa bc4faaa7 bd347ff2 be22ff0a bd073819 3e068f01 3dc71b74 bd8c18e6 be09a520 3b6011cb be874265 bd4eb4b1 3d0b2d5f 3dbd3841 be896bcc be0b16a8 3e2cc3ed 3e2e8da8 3e262688 be5e5a80 bd87bba3 3e50a765 3e9f1709 3eaac6c2 bdaeef6d bcc2694a 3ec3cff8 3f040061 3f093ddf 3cbc8730 bdef9ed3 3e51ea78 3e6e7b84 3ea3c55c be30d867 be2030a2 be7b7f93 bdded422 be423264 bda9b457 bd70da9f bdd8c2bc bd9ce0ce be331d40 be1964dd bd02b632 be10b88f bd0399e6 3ce3559f bd2c5ac4 3cd8b93b 3c281169 bc94d057 bb4376c6 3b85ee69 3de8d2f5 3cf20845 3d4293ec 3db6e89f 3dd326a9 3d4daaa1 3dc35781 bcdcae25 bea45d3b be03bf5f 3dd74fa5 3eba2fe9 3e39a7e7 beab4a0d beeabf25 bdf2c693 3e6dbf65 3ec05c54 bc401bed beb69a2f bdb185cf 3d48411d 3e8d8470 3e950dba 3ce4ffe8 bccdb4d0 bdd8df82 bdb0ebc6 3d9f2162 3c936dd5 bd2a730c bd74a715 3d643a09 bc19d62b be077b92 bd87c31c bda40017 bd45a69c bdb1e8fc be97ac8b bd1ff45b bce1f193 3e17a068 3df97c52 bc631f70 bdeaa434 be632193 bd364333 bc0c6986 3c43efcc bd2dd502 bda5eb22 3d17238f bca42e22 bdcb9fd0 bc923e4d 3d38a8fd be489697 3c077f1d 3e5c7732 3e363aed 3d9a70d3 be4e4399 3d4347f7 3ead018c 3e53eb13 3d7933e2 be9cb490 bef8943b bb8e6ddc be366bda 3d4b820a 3e11c164 be4d821f 3c031bf6 be1f5a55 bdf200d3 3e951688 bc1af2e3 3e06a9f2 bc45f5d5 3e498bc5 3dda98e6 beac6759 bdacdf0c 3e298b65 3eba169d 3e77cf6b be8145f5 be80e26c 3daea03b 3eacf5b6 3e88bc01 be811d12 be77b72e bcf253e8 3ea5076f 3ed3434c bd258f44 bdc82d73 becd1ae9 be1b262f 3be2673c be5c5923 bdf70d6a 3dba69d6 3d8df51d 3da0c549 be052598 be04b57c bd1cf565 bd791a97 3d7d38bc bde762c7 be8cce21 bdd5845c be105772 3d87edb2 bc701111 bdb3e490 bdc7561f be3e60b0 3d69ebec bd7c1e52 3d5e86c0 bd5fc9ea bdf2b2da 3e058c74 3bd999e9 be358108 bd3a2192 be4201be bd83c26f 3e8b5815 bd5d52b1 be52492d bef19260 bc344962 3f11300b 3e8e4c5e be002935 beef4368 be5f42a5 3eafe8ac 3e870e57 3d2cc58d be861f63 be9cedab 3df1a663 3dc4ac78 3e2f0f22 3d4738b9 bda6abd3 3decf6d2 3dc4cbe9 3e02f982 3ec6e2e2 3dafa048 beda5bdf 3dea4c2a bd1aef2b 3f16e34f 3d756c75 bf207af2 be4f817c 3ba4975b 3f21012c 3e743811 bf0dbf42 be43c5c8 bd89efa0 3e8e2bb1 3e7c9e0a be38689b 3e30c70b beaf0e83 bdd9b3aa bddc9959 bec6c7a8 3c8cb63b bdc9899a 3d8ff8dc 3e3d6413 beb5fd0c be497885 be72c30f 3e4b485f 3ede5f0b be29f255 bea8afe3 be539c3b 3e1df510 3f0ab097 3d834f38 be72e912 bdbebde9 bcb40023 3eabbbef 3e4e05eb 3e26a735 bd96ce6a bcff11f3 bd3c36ba be0fc3a8 3e3e9996 bdde75d5 bd444802 3d572cff 3dd4c570 3cc22a08 bdf8e51b 3e6b3b4e 3ee4e905 3ed22d6b 3a9fba8b bde4a79e 3e1d165f 3ef63d33 3ec78d72 bca463f8 be4aa084 bdcdb2ee bc8790e6 bd0cbc82 bec6079d be1ce11b be5fe9a0 be734e85 be65801e bea3219a 3de682d9 bdd80131 be1bc5f9 bd81e533 3dc599f6 be06979c be45e60e bd202b58 3dc43b0d 3e36f990 3d20ef80 bd195205 3ca3d164 3cb278e0 3dfa7188 bd29ffb3 3d45d46f 3c1b14e3 bdfc5c48 bdae5a04 bb112817 bd5cd754 bbfdf171 3bde0827 bd8d06bd be086e5f 3e21866d bcde051b be2af80f 3b9ff483 3d2991d3 3de3b23b be9877fd be8e79e1 bdc93399 bdb9a75f 3e4919ae be940c54 bda45e9b 3c48eaef bdcdbcad 3e2910b8 3e623ed4 3e40812b bd15a7cb bdc060fe 3d5b9720 3e41c8a0 3ddfd072 bd87ece5 bdbe8c43 3d47eb71 3d87b943 3d90f0ae be0236b0 bc9b07b2 3e850f22 3ec5b877 3ec48430 bce157d7 be659b0f 3e1a36d1 3ea6fa91 3eadf21c be916f2a be64ac1e 3dda433a 3e3471db 3d3ef291 bec9b0ad be8f17e4 bdcefe10 be8d65f4 be80c318 bedf2074 bdbe6b44 bdf14065 3d7765f7 3dcac6b9 3e3b1739 bd4c86a6 bca5ed67 3e3063e2 3e84ec45 3e8c2d78 3db212c1 bd218e8a 3dbbabc8 3df49753 3e1937ff bd447411 be02dd3b be435dd9 be7438a4 bdb753bb bdf9d5d2 be34fe0d be8cd51a be3a7ed6 bd6a5367 3d695deb 3c542d2b bdb149e5 be103c88 3dcc2335 3de1cad1 be380103 beeba2a0 beba7cc5 3d775450 3e1ffff4 be109339 bef2bfe0 be2eb64f 3e85421b 3e8271ca bd6cdd1a bce53ccc 3e002da2 3ecaec0a 3e5a9224 3d92f815 3dc9426b 3e4c9742 3e3cae16 3dc64fab 3cca8d14 3e0372d3 3e21d4c5 3d0d05d9 be1c08bb 3e054fc4 3f21a494 3f081d4b 3dc7c0db be817a1e 3e557167 3f4eb7bc 3eb84b8d be9b29c5 be9f5eec 3d49c297 3e700787 bea068ee bf0be2f8 be90829c bdc63cc2 be247139 bea4ee99 be923d9c bceea29e be1dead9 3de2e8aa 3e78b8d0 3db90acd be10c9b8 bdb9c5a1 3eb7385b 3ec2f68a bae2a722 be00b62c be12a9c6 3ee9e190 3e8cebe9 bd4f61ad bde8862f bcc1ab8f 3e810d90 3c6d1931 be7d3ed5 be371f58 be56e429 bc1612e9 be523cad be8a8e6a be415cce 3d614b02 3da2f455 bd5d346f bc0ed1e1 bd6b1288 3cc09170 3d7ecbf7 be2a5bef bdf6a6e6 bc07fa0b 3e34deed 3dedcb00 bd372c90 bda8adc7 be0a8eaf 3d816e3a 3d831e2a bc3c243e 3d844d08 beb4b09b bdb82e13 bd9a91be bdacdc9b be07f359 beb35114 bde2b536 be04e9b4 baa24fc0 bd0c5c77 bee89389 be4688aa bdb73f80 3dfd42d1 3dcca7a8 bf194b1c be2bdcc1 3e8a3112 3f0b4347 3f0c1a03 bf05d68c bdad6c92 3ec88089 3f328d1f 3f22b626 be945b8f 3cf00ac2 3ec06a7d 3ecd81de 3ed105f3 bd0f8949 bd47e4b1 be0aa6e8 3b65b30b 3de4a565 3d0bc3f3 bd3948cc be298377 3d728ea3 bb72faf6 bd5003d6 bd8abbb1 be071e51 ba8cbe21 bd8234b3 3bd74284 bd97f1f4 bdee6ae3 bd88ab58 be13b761 3ded831e bd62617e bda6debb 3d8b2646 bd64f332 be09041b 3dd47fa5 bda08a39 bdf97e36 bd24071f be478a52 3d9faf5d bc8836fe be12d9f5 bdcc95e6 bd9b378d 3d037dc1 3d6ec6a5 bd94f41a 3d79cea3 bdb9ef54 3e01571e 3d5705e9 bd35184d bd022068 bd75f55c 3e1c2782 3d3e7c82 3d6dfb24 3e50ed33 bf0c3d9e bed9179e 3e1edd6d 3e39a2be bb2725c5 bf0192e4 be7c63b6 3ef53984 3efca9fe 3e5aae60 becadbe9 3ca5199d 3f5957e6 3f6d209f 3f00a557 bea3a88d 3df1b80a 3f5e02a4 3f65a3e5 3f0c30ec be98a2eb bd14d97b 3efd1035 3f05388b 3e998240 be0918be 3d7fed15 3d8045fa 3ddedcb4 3e4acf05 be7e873d 3ce1583b 3ca2bfbe 3e3b53bc 3e87a331 be97b539 bdaa84ca be23738e bde8e1b3 bd7b891f beaa7cfa bd82cb9b be3eb1c6 bdd0fa53 be00bbb4 be8778ea bd850724 bd7112c5 bdb60fb5 bdacf5d3 3ddb98aa 3db9f229 bc9907c5 bdef52bb 3d19598b 3ce56ee5 3e2997f8 3b1ab2a6 bdfe0b03 3c88bc2a bc6fa008 3e4593b1 3d6d8055 bdc33e07 3c132b43 3c915332 3e2235e9 3db96508 bd301bb9 3d72ce88 3a0b28ff 3dbcda86 baa18c64 bd5d88c4 3dd5b000 3de43174 3e32eb01 3deb543e 3db24483 3e46ee40 3e8c8152 3e41a0f0 3e1c34b9 3e46d745 3e194f31 3de2922b bdba16e7 be598630 be3eff81 be3e28f9 be2ea861 be12c15f bd373a83 bdc29d9a 3d44d308 be0cdbd3 bdcd26e8 be3934db bdb16118 3c3819da
feature_net.conv1.0.bn.weight 16  3f069313 3ebc72f6 3f80b81e 3f1c6b70 3fb67ee7 3f8dd156 3f31908b 3ef1797d 3f5e9d41 3ea11012 3f3e863a 3f68964e 3f4e14f6 3f7b2462 3f86ea55 3f3de54a
feature_net.conv1.0.bn.bias 16  bf3c9967 3f83c0e4 3ef64a30 bf80c331 3f32cd78 3f1dc1af 3d693108 bf228599 be6863a9 3ddefeb3 bf2fc893 3f36ab57 bc3d9620 3f5942e0 3f82db79 bf14370b
feature_net.conv1.0.bn.running_mean 16  c08bee9d 3fa2ed1c bdda13bb 40517d57 bdd09970 3e2007f1 3fb45058 bf0d357b 3f9f38af c0456747 3f55de81 bed37f76 3f17f5d4 bf0641a5 3f3b00fe bdbccd11
feature_net.conv1.0.bn.running_var 16  40771b1a 40856f30 408d30b2 40ad518d 408ea4d7 405caad4 409c0837 3f02998e 4133b0e9 3fce3bf0 415a93d0 401475f6 40b8e8c9 3fac5c54 3ff0381c 40356ca8
feature_net.conv1.0.bn.num_batches_tracked 1  46b2e800
feature_net.conv1.1.conv.weight 2304  bd00853f 3e697f80 3e759661 3e6f45e3 3e7eba0c 3ec21efc 3e0b65d3 3ea4163d 3ea9294d 3e44892f 3e20eecd 3cb32d28 3eaed730 3ef2b185 3e1dc6f6 bed09360 3c8af7f9 bc3f6ea0 3e22b16c 3e9e3fea 3b598cab bda4ecbb 3ebc2da2 3e214f2e 3d5d4126 3f03c775 bce7b3fb bd2a8f85 3e060f07 3e4fdde5 3e0a904e 3ec1cf1d 3eab6376 3e10f100 3eb4e7f3 3ec9e70f bd9b0f71 3e2d09e4 3defe6b1 3e50e3fb 3e40c2d6 bee2fe6c 3cb8ae2a 3e8aff87 3d08ce93 bd539937 3ea880d5 3d276a61 3e3c111f 3ee76dcf be4bec58 bd24e6bc bd4379e5 3dc23be7 bcd12c26 be38d832 3cbb133d 3df13ea2 bd0850be bd35b860 bb3f5f40 3e70b018 3eb008fa bc0007f7 be65c6cc bdffad97 be01464b be88841a be8bad54 bd6e899d 3e0a1320 3ede583b be5f53b4 3d3df03e 3de4027c 3d46ae5e 3e3e61bd 3ee23e03 3e6deac8 3e97b543 3e5bd195 3e636484 3f31f807 3ed9f11b 3e4b057b 3f1f6c77 3e9baf93 3eb480b1 3f272265 3eddcd81 beee566b be09a19e 3e383aca be73aed5 3c01e99d 3ea96bb4 bea3f207 be44139c 3e1bf221 3e58af0a 3d2e5b05 3dd003a8 3e32a30c 3e75dabe 3e361496 3d03371f bdb06161 3e8584f1 bea54c21 be071de4 bcde1a98 3c90ad69 3e87dfd7 3e1589f5 3e849142 3e2de91a bceddf23 bdcbaa9d 3ba22907 bd9c5382 3da6e5d4 3e604c59 3e33d0bd be3be87b 3e867284 be222861 be37d680 3e17dd74 3d8edfcc 3df2b81d 3eec77cb bd30049b 3ea29a81 3f087d1b bdae10a7 3d82ee3c bc5049f9 bdef7699 3d8da741 bd915e6b bdc84306 3d8a43fb be498a82 be958393 3e5e82c1 3e31b832 bda5ea62 3dfdd9dc 3d842655 bea35fa4 bbe42224 be0116a4 be2571ef 3e6ebb37 3b52142b bda25dbf 3eacc605 bea76686 bece71e4 3e658356 3d3622f3 3d39d91f 3d1e1377 be6acfdb bce50547 bdf9e23e 3e9696f6 3dd9108f 3e47f79f 3ed2bf1c 3e6271df 3e57d677 3e975e4f b83fd0a3 3dd04918 3e1170f4 beabf15b 3b9f99ec bc79515c be9282d2 3dadc391 bdd0cea4 be85d6ab 3c3f9661 bf1e29fd 3e26b62a 3c77b135 3d5b3d5d 3da32443 bdf23529 3e70a99a be9f1eb5 be49af41 be8e41be bce962d2 be70bfce bd05667f bd1969b1 be39b07b bed6109a 3ec228af bd13a525 be2846ae 3f17596a 3c3b5025 3c3d0d5c bd02c022 3dab137e 3de25b9b 3dbde69f 3ccb5848 3dd96082 bd8d9ca0 bd4af19b be300ad8 bed09639 3d860ef1 3eab5928 3e114271 3d99efac 3d54247a beb47af3 be857450 be328fea be48e54c 3dc37de0 3d7eae70 bd93cd15 bcfaa124 bd912857 3e04bf89 be100328 3dd29edc bd712b9c 3d3e9942 3e7b6e8c 3e247859 bdb68566 3e479a1a be2561ae bd67470c 3cfa091d be292e8b beb28443 bf025331 be49f3ad be94099b 3ea0c505 3ea88e9e 3ac156f6 3ebdff07 3dd066dd 3e54c662 be21ea5b 3d639164 bd0858e5 bea6b281 bd078756 bb549c73 be80e75a bc987ade 3d53df79 3ea8d11c 3dbf7c1f beb80c74 3f614257 beaca5a5 bd66d150 3e99d575 be0e61a1 bdb32ef9 3f2c01a4 3e0afde9 3eaa7d48 3d714ea9 beb18f79 3d0acc2f bea1d36f 3d7e688d 3ead56d5 3e54cdd4 bd285f71 3db514a7 bdc5e912 be9d43d2 bd8fdc15 be5281df bd62e983 be88b364 bd2d06cc 3e3c3f9b becc8098 be8bd3bb 3d356a12 bdf2e29a bba24857 bccc97f4 be965503 be37dda3 bed02ac3 be68fbd5 bddc6adc becb8421 be9869fe 3c3dfc37 be022007 3e019a19 3e64160c 3d61cfe6 3e34a464 3e9a1f7e 3d51607d 3dff8a57 3d26fe64 bd510a4f be2d7ec8 3e2171dd 3e6c9b59 be1fd1fe 3e0abfd2 3e0fcfdc 3d892a55 3e11d855 be13dc40 3c6e7940 3e531558 3e35d06d 3e1b7633 3cecfe26 3e8a582e 3db20bc6 3dafb38c 3d5dfda3 be6b69c3 bdf12326 3e369971 bc9bf08f 3e249e56 3e12a556 3e9d69ad 3eebbbb0 3efe098b bd4602e0 3de36d63 3e303eac bdbd86d9 bee2779c be4e79a1 be77de2d be8005c6 be7811d6 be6522c5 3da1f0b7 3d9f92b5 be46c7f9 bdb44ada 3e1e468b bd0f1e62 3d5aead1 3dfc66f1 bdb2225c bd1cc87e 3da033b2 3bc4dbbf bdd44a16 3cbfffaa 3d9c46ba be2184c4 be1106c7 bbcdda84 3dd518f3 bcfcda78 bd7f7c95 3d75db47 be4a0d9c 3d8a52fe 3d592746 bd018a5c bcf74368 3d6d02cc bc910bd1 bd1730af 3c8267d4 3d32a580 be461067 3d0309b4 be06e2f2 3db1eb61 3ea6d358 be309a99 bda90574 3e546345 beaeb5ed 3e7eadcc 3e50d7bb be79c36a 3c8a7674 bcf47606 bddb1586 bcfe6ad0 3e0d9b70 3dcef65c 3cd89351 3db25a8c 3dc89adb bc66841d 3da035fb 3db97a2b bc1367ee 3e399587 bea9b949 3d848e87 be92c3cc bd4ecabf be5c732d 3dde1b4c 3dba97b5 beddce2a be33cde9 be00eb14 bdb43696 be34130d 3e22ee5f bea94a46 be089c13 3ea73fae bee1a040 be5fc0de 3e7f0354 3d837a88 3d6aff63 3e568855 be36a283 bdce2885 3d90cbb1 be9c47fb be541fc7 bd4f007d be03c6fd be303a94 bc8a027a 3e6bfe05 bbede0b5 bcbc908c 3e87996c 3cbc5c46 bc4708cc 3da43474 bdad048f 3bba145f 3d50d2a2 bdfc6a07 3e77daca 3df1a641 3e9738a2 3ea658f7 3e00d579 bd0633e0 bacb098f 3c6f0fe0 39c0ed55 3dd26abe be0aff9a bdc2e890 3d856f73 be72e0eb be435e69 bc5e3eff bdc3a1f4 bea71a16 bdda59ad be5a5e40 bfb3845e bf604973 be3adf20 bf6820c8 be82325e 3dc6d946 3df9386b bbd2dd55 3e57cdc9 bf18c55f bedb0825 bb0413b9 be816a18 3ea4e911 3e59d702 3c83c489 3d8f2249 bdc2d177 be935683 ba5ff920 bcdfd741 be1bdc86 3b6513b5 3d9d763e bd1e25a9 3de0c885 bdce082f bd6b58e6 bd3617d6 bca96fc6 bdde2193 bd8d3d29 bd87abdb 3e20058b bd2aac34 3dad3911 3ecf6542 3d77288b bd8cb7df 3e2452cc bd5f04d5 bd0935f4 bd31259d bc8fd3ba 3e47c6df bc11e5eb be17cf6a 3c1724a4 bdb6bd7a bdc858e7 bc175f97 bccc78f4 3d3812ff 3d10a3ab 3c93ea55 bd879857 bd8bf4f1 3dae765b 3d24c241 3df16d7c 3d229707 3de45f67 be0b1f5f be22c108 3d76de2c 3dcee8b0 bc84c3e2 bb62f58d 3db110b7 3cc6a5da 3c93402b 3ea02188 3d3c1279 3ccb3c28 3e129d11 bd6ad152 be0cec64 be092d2c be21474e be294384 3e646d34 3ee7f7d2 bd28f04c bcfb469f 3d194f37 3d869703 bd8e47ef be376ac1 be1dabd2 3e199b2e 3d8c54c5 be913319 3e9cbc51 3d7eeb74 bbf502ad be53c6aa bc971945 3d77d4a4 be3af49b bcdee67b 3d8ff88d be2bb00d 3d2ba45d 3e00b05a 3cfc3aa7 bd8ef90d 3d1c6f62 bd68da66 bc9c3570 3d61770e be80da52 bddcb2ef bb90d005 3eccde93 3e838928 3ec79051 3f404422 3e93ef4d 3eb53103 3e941534 3de6f47b 3e1de42d be8aa960 3e67935a 3e23f32a beb3cbdc be109c8f bddffbed bebce0e2 be85c959 be800a54 3e2b40be 3dca0f90 3df6a4e9 3ca271a6 3cbedb9c 3d2d4901 3d50c8eb bc9c80c8 3df34d70 3da9830e 3de8804f be33e11c 3dd0da02 3d508284 be8b9343 bda8b4d0 be2b2501 be95efbb 3c4da3be 3dccc5c5 bc5b8ebf 3d046ced 3d4e2f24 bd43063e 3d80ae85 3d9acc9d 3d3523bf be59e0ed be109fb9 bda90fd8 be722ed8 bd19be1e bcc7a921 be223f5f bcf4ac79 bdead05a be25091e be390fff 3c245a0d bdaf9c34 bd8719c4 bdb71df7 3dc521ae be9b4f6e be2500cc be01c372 3e87174d 3e3a0c40 bdb3596f 3f0ce21a 3ebb3a7f 3dabed5f 3f26b24c 3f0ce4fe 3df252a6 3e2fdf70 3e1efe12 3dd4edc0 3da81b0c bde05e90 bdc9a635 3d587f64 be1a104f bd9d0f7d 3e016056 3c9c0e13 bd5f57ff 3e824a96 3e75fef9 3d84e150 3da10ebd 3e7f1cd1 bd417b0f 3c3a161f 3d96d354 bdc5bc02 3d5be080 be0e021b 3d8ba40f bcee1180 be4a4daa 3e1c1b06 3eb46dd5 3d342860 3dfc13c2 3ecdb234 3e165724 bd06ac9a 3d35dd54 be94a092 be52faf5 3d1fbf44 3db3525e be608d77 3e3fc01f 3d94b6ca bed619e5 3d403843 3e46eb24 be75f4f2 be57cd27 3cb10d80 bcee5c8f bcdae9e4 bd0c7811 3d9c83b5 3e9fc215 3dffb219 3ba21d30 bb622f2a be43f4dc bdd568a5 3e04d957 bcd44b56 3e18a8eb 3e2a5e86 bc7cd64f 3e6ae5ed 3dc0e0da bdef05aa 3e2ccf21 3c96a222 bdd92851 3d299dee be08c6d4 be68e1d5 3e114cd0 3e14fe37 3e524490 3e306b29 3c85db6a 3cadc02f be157ca0 bdd549c6 3dfbe0a7 3e852f2f 3ddc01fd bb981707 3eb3bc6e 3dd60c48 3dd216b1 bcd6a917 bec799c5 be87ffdb 3ec67c13 3e4e25db bcedd881 3e6b344f 3d967cc0 bdd19195 3e2f35cb be100790 beb5281f bd52791b be489033 3e136e7b bf03c843 bf8b6307 bd8c2bc5 3d9c1f80 bea48f17 3e3a227d 3e30bf82 be330c9d 3dd72b4e bed6b6b8 bf996b05 bef3cc33 be77b099 beab914c 3dc1148e bdf34e08 3dd095e4 3eeae656 be3dcb66 3e11471b 3e7c4f27 3c70ba9e 3ed45c44 3e5e6ba9 be3ab126 3d01b650 3dbd9177 be772fcd 3ccc57e7 3d792df6 3db1a772 3c9a32cc bdbe07b2 be88fbde be3fd772 3d245c75 be89b4f1 be81bb2c 3c2ea234 bd62ba7a bde93b4c 3dfd3ac8 3e70766a 3db2fd3a 3d8a6942 3d67a15c be87f817 be96e7f5 3dfdbd62 be998516 be6ee218 3e4f263e bd2e00e6 3b978f7c 3e5d9b01 bd04c5f7 bdd7cf5c 3e235bd1 be3915ca be92072e bbeeb691 3b445ef1 bd8ead2c bb9cf73a bea3a71f bd4949a8 be356686 3d7e5b10 3c6b80ef bd505ae3 bdeada0f be5082d7 3c497263 be569c95 be8434c9 3d620fb5 be201f9a bd822b67 be282e10 3e831012 3db0e03c be5b1e89 bd75e8ef bd9e7123 3e281123 be80fd89 3e36cd5d 3ca775bd bd164184 3e262108 3e99d955 3cbb7689 bd0659a6 3d975a14 be38a435 3e19c091 3eba8d9a 3e37c205 be294e9d 3e130700 bd9b997f bed72283 be0495a4 be6443dd becb3c7b be1f4d65 be812ad5 bdba73f1 bd18f52b be6b25e7 be8b7de9 3d8c6541 bc36c13b be1fac0f bd688123 3e49997a 3c148152 3cb33bd0 3ec4be8e 3e2feda3 be129b18 3d46e04a be69a798 bd0ea96d be8ab310 bea61dad 3de7cde0 bed91ada bef2b6cf 3c9f5622 bea0b2a0 be7f884b 3c673e20 3d261204 bd4341a6 3d8c2cf0 be0fbe3c bd96edad 3d43ea30 bc5319a8 bdcf0ecd bc852c6d 3e1a2c3e 3e985f13 3e203ff3 3e9a2b42 3d83e73c 3da9af23 3d7e0a0b bc181b83 3ca05fd4 be242629 be48a256 be1efd7a bf1d3491 bf0778c1 3b76b315 beb8bbcb 3e05f41e be66b457 bdbd987f be94627f bd6d7348 3de9597a beabbcf5 3d486de5 3e1db2af 3c9a0822 bd97224c be95ea5f bdcf6ce2 bd7803c6 beb24c5d bdb88b45 3dcf5181 be5e766e be26a6e1 3dda7e75 bdc4d623 bd98012e bd8a9e65 be7730c3 3d1244be 3d1a5ef5 be61a99a bdb4feda bd541410 bdd6cb39 be0465d2 bdcbc273 be2f93ed be8d2a33 bd259fb1 be071e00 bd9c05c4 3e0e81fc bbdcce55 bd978dae bd0f2890 be94685a be55b9b1 3dc6c250 be2e45b4 bce5b6fe 3e4c777f bd5d4bfa be8e4458 be80f30b be97ced3 bebb4694 bc17f80a be4ee8c0 3d6a2a42 be3dc0bd bea10d0d 3a8db8da be00a171 bed94a25 be2a13d2 bbde940e be52c4fa bc26531c 3e188872 be3f2e84 3e041580 bdaad02c be61e725 bd8e21e5 3db42431 bf2fa90e 3e3925dc 3e5103a0 3e24932c bcfc7d78 bd5ace33 bd846e7e 3dc9ef51 3ca63423 3de0e381 3e178c99 bde360dc bd702d51 bdbf7a8a bd9288cb be944727 be9f65b4 3e456b6c 3dc83e65 3e5ff7e6 be00adb8 be8d34b0 be278f31 bd74a29f be395167 bd84ce3d 3c070b74 bddc91b6 bdc434aa bdfa5f53 bebdfbde bf0578d1 3e4991cc 3d2601a1 bdc5117b 3d873566 3e84324c 3e5ceaf7 be988687 bd4b14a0 3e9857fb be64aaf9 3e7caaaf 3ee539b9 be86b13b bef642a9 bd88ef99 bc1437e1 be89b402 be2ddd0d bb922ee6 bc93b5cc 3da4d939 bd8cbb29 3c903c2c 3e02da2e be3a8dd6 be35d901 be40c327 3e0f9aaa bf0f9a42 bf37968a 3d4c1671 3d82626f 3d89b6b7 3ceaf864 3e7e4928 bebbd58e 3e83750e 3e0d46eb bd00368f be8bd24d be2fa50a 3c6f953c bcb80167 bd936902 3e581643 3e087241 be7d749e be805e79 bd850a4d 3e35e95b be09e0e1 3d1671a9 be0cb816 3e081de1 3c5b2c5b be37614a bd4a29e6 3c905689 bbc64dde 3df9f81c 3e56b3a2 bcb7ccb3 3c29d157 3e0452bd bb09116c bb04f24e 3e44c679 be02c20d be188060 be3ac865 bc17da8f 3d32637a bd952781 3e266085 bbef9ec3 be9e2f36 3cc235b4 3e3332e5 3e4f47c3 3dfdafcc 3e00ff1e 3d3f8471 bb4a3d56 3c9b3ff3 be20e7f2 be213bdd bdb3429c 3e284af1 3e81bbdb 3ef80a3c bee8751c be639277 3f09f4d7 be49e287 beafb7f9 3d7723e5 3d309466 3ec51fcb 3e198541 be6e25c1 3d9cae32 bcbe4e8e be5280f5 bd4cf128 3cedd3c2 be03dd52 be447e51 be9a3463 be730daf 3bea99bd 3d9def70 be8097c4 bedfd00b 3e19b703 bce13685 3daf0e14 be8ff01b 3e6ed3f6 bcf28136 bdd55d02 be85ba08 be11b2c9 bdecb4e8 bdddbeca be802fcb 3d4a8810 bdb865a6 be30c356 3ccbce86 bd4dccf5 bcda0301 3e2202f7 be896c96 bd08e52c 3e7152d3 be65a8ae 3dc567b8 3eee8342 bead5827 be94bfc9 3e0404ea bcff8c11 3e5b8a4d 3def021c bd1241ae bd9aa2bd 3d94c376 bd15e1ad bdba8495 3dda5127 bdfda506 be2eab84 3d9e0d88 bd354af4 bea3c8d0 bce8be4b be70fbd6 bc6c0cd7 3d1f169e be886f90 3cb98eac 3eb72b91 be905474 3d040d06 3f1a4c42 becc8de7 beb34e7f 3e0c3c1a bd42e28b bd8f4f69 be8afe0a bec79468 be2cea96 3bf37556 3da012f4 baa4f601 bdd6c17f be25531b bd4cd0e6 bdf66cc2 3e187303 be4e6a0a 3e84855a bc00104d 3e95db96 3e9510aa 3dece87f 3e6e892d bd50aa76 3ca01c4c 3e192c2a be2673c2 3d8479b4 be22972b be3251d4 3b8d46fb bdbabd53 be91b7ca bda417dd 3e6b0444 3e899415 bee377ce 3e5a2bcd 3eb77b0d 3d938d05 be70efbd be4ca315 3e5bdf31 3d088715 3d0bd34a bbb1d31b 3de919d8 3e60f787 be01f69e be3bb393 bd584b53 3d84f8e8 3ce43f6c 3e052c9c 3cbdc064 3cec6586 bd07821a ba396404 bdc50770 3e5ae75d 3ccb987b bdd650e8 3e7a4675 be2cf1dd bebac15c bdc176bd 3c491974 be160210 3cb548cf 3e770e91 3c07d3d2 3d1461fd 3de45689 3e3b718d bea0fbb8 bdd48a0a bdadfa81 3e173d24 be2d888c be2f3713 3c4a0dc3 bd0f8190 3db6fc0f 3e03b7f0 3d224ea2 be217d30 bde78f2d 3e7322b4 be8fc54a bbe0383e bda4700d bdcf3a16 be26510f 3e8cb06d bdb086a5 bdcfecd5 3dfe5826 bee55194 be1383b6 bdeb8df9 bdf9c327 3e29f57e be558063 3e71eafa 3e26f973 be6c3bc6 3ebefd58 3ec4e353 bf090551 be1c45bf 3e4f21c0 bd42fae9 be8a8c66 bda3dfc8 bc3e6af3 be5304a3 be13d7d3 bd60b7c6 bdaa6a3f bbf9e5af be03cbec be98ed39 beae82db bdb38bed bf3d869d bebb1446 be97869a bf169033 becccf20 be55bc85 be248804 be843cf7 3c2ca6db 3dda2432 3da31aea 3ea4ed8e 3e013fef 3e8d5332 bd89d0b1 be3f4bf3 bd421a0b 3dd99ddd be262297 be447024 3d8ff24b 3d2968b9 bd8465aa bc1ba140 3e642ef2 bcdcbf08 beca2c59 3e55101e 3d002741 bef259e8 bdf2263d be425519 3da676d8 3d59f1b2 3e2e82ff bece25c3 bd8f6ec4 3d693a4e beaa2e53 bdd6fb14 3dde9fa0 bdd33a6f 3e407ce8 be284765 be5ead73 3eb48483 bc1ce159 be84ee9a be00d8f8 bdcc946c bd9ade4f 3e0a6976 3e5d537a 3d9782f4 bcd031b3 3e3a76c2 3c4ffa09 3c555ec2 3e540c6e be6378e5 3dbce942 3e04503f 3ce00d64 3e314e4e bdacbc0b be33b274 bde0282c be766364 be30553c bd63bdb0 3de05925 be17e2ee 3db48e8b 3e1776fb be5c2193 3d8cfe07 bd56a54d be4245df be9a224d 3cb067e9 3db2ae63 3b3a1369 3e268dd8 3df72c92 3dcc39bb 3ea05817 be9d97a9 3cf3543b 3e012827 be80e380 3f05b13b bcc4baca bea23365 3e94bdcb 3dad224d be718deb bea28086 3e203142 3d2501ad be29795e 3ef2678a 3c7de0e1 bdbbdd20 3edf5733 bdbc040a 3e7703bf bc9f7ccd 3e6e9761 bee97c62 3cb1197a 3da85d87 be930e5b 3d33b6d4 3dff5a1e 3d581ecf 3de10064 3eeaf60c bf5b61c1 3e1a9b25 3d718a1f bee2403e be9e7bea be361a71 be300535 bba0ef02 3d089674 bd35e894 3beb506e 3dbc3e68 bbcc2e57 be839876 bc8b3d57 3da06320 3da6127e bd93252f 3e001ecd 3dd6cf29 bede63de be7e40c7 be2c76ed 3e6365ce be98d45a bd41f650 3e5623b4 3db3f23f bc8fe46f 3d696095 bdcc3f40 3dddc9ee 3d5d0f2f bd935189 3e41a2ab bea759c8 3e1baf0e 3e9b772b bf2bc5a5 3d5374d3 bdf11222 bd95c0db bcf7c0e2 3d3c0cfa bd9cc628 3dae6175 3dfa2609 bdd468e2 bcfa4709 3d27616a be343a5d bcc60733 3e13be78 3ee5321f bebe0fc4 be8fa8eb 3e839c67 be2b6bfc 3d446132 be3b3360 3e2cadab 3d998c91 3cfc4e15 3f4b4a41 bec602ff be8f1892 be643a40 3e1981bb 3e2ec3d4 bcb036b5 be094599 3ec10168 bf0488d8 3a591465 3e1db484 3d86c712 3d7fa5a6 bdff272c be21186a 3d9b37d3 bddced76 3d23cc83 3da218e5 be195044 3e21f4bc baac32d5 bea87787 be6c60f7 be579c1d bdd3448e 3ee574bd 3e985761 be73beb7 3ecda141 3dfd4e31 bed1f311 3df8f110 3ebf3fa8 bc8008c3 3ddacb33 3d5b1f13 be5e5958 bdbfd7ea 3d86afb5 be2fcb35 bdcedd3d 3dbf0106 be2a341a 3e2b6ba0 3e71cb3b bea9f5b3 bdd877fc 3d0b3289 bcd7c7d6 3dff2148 3e6d9f81 bcd4bcbf bdfd19b0 3d855683 bd281f5c 3cace604 bd460d23 be2291de 3d0d2ac9 bbc906df 3dcc1ebc 3e2ee45c bc9f56fe 3decae64 3d45e9a1 bcd8264d 3c58e22c bee69533 3b8a32ca 3ce0abcf 3f11c681 be40840b bf48cd01 3f0c9312 bd9580c3 be12e53d bf0e3510 bd360ac3 beca46a3 3f04d5f4 3ca3b981 bde429c6 3e803dae bb9c6cdc bdc46d37 3bbc34cd be0aeadf 3d20b9e9 3ea5569b bd79bdec bd746f04 3d144afb be366d04 beab21b9 bd1f6a81 3cb34355 be1d79a2 be2e8af1 bd9ad363 3e3204b7 bc912aae be5c5fdd 3e92285b 3f1f9027 3ddb6f8e be97ff60 bc9a06d8 bd875535 3d21d3e2 bdf5b013 3b1b2dbd 3d3eef43 be777823 3e8ab143 bed80f87 bf04ad53 3dd9f5c9 3d05d0f6 bc4b0b1b 3d92e650 bd8e1206 bccbfffa 3d95b51f 3c813803 bbe9eb23 3b6be234 3d6d223f bd92767f be326859 3e6fbb7f 3eacf6c7 be5440ef 3e36a623 3f12a5c7 bec5fb60 bd532f70 be0d1170 3dc4d0ed be290f0c 3ee4ae63 be08ba47 be42216c bed5c63c bec0a001 3d2539df 3c63c918 3babbca3 3bc03b6d 3d5958a0 bda06f82 ba8c0ed5 3e34d26d 3c8884be 3e2de8fc 3dc28341 3ddb4015 be928a86 bdd559a0 3d95bd74 be1b2bc5 be2aae4b bcb2c595 bc5a3376 be03641e be2974b5 bdb57095 3e2efdef 3ee71af1 bd64adaf bd31e0fe 3e31275b bd610607 be59008c be1873bf 3df69222 3e1c80cc be053737 be509fbe bed24b78 bde5eab2 3d031251 be9db196 bb09e4e4 bdd453ea 3d954f1e 3ea3d19c be8648b2 be5146bd 3cdf9251 bdc6f3c7 bdba4d55 bdcb3f78 bd17be66 be89c8f2 3e3dab13 3ec8f899 bef91604 3e7e8229 3d8467cc 3c925026 3d295460 3d2eee42 3e77b596 3e881f50 be372ad5 be5a4960 bdff4827 3c3f6f5d 3c5309e0 bbb81112 3c902771 3ed5e0f3 bddbc518 bed309ff bec41f7d bdad3046 3de33169 3d3b01ae 3e00414b beb1a6f0 3eae9bd5 be40829c becd2ee3 3f346c06 be2eb641 3d9ecbe4 bebd69f9 3d9dc7d2 bdd242bd 3e2427da bdc688a6 bcd4016d bd1ed9a0 be447cfd 3d2e691a 3ceeb501 3e2c871b bca06aa1 be6c1394 be5d22ac bc370740 be445334 beb1c280 bda3e282 be6b4946 be814195 bea2ebe8 3dcbb0f1 3e0e962f beb7528c bdbfa214 bc9b8614 beecd8a7 bd77e1e1 3ddad3a4 bb90ff6b be700aaa bcdccf83 bf009375 bf690712 be161a4b be9d55b2 bf00198e 3de9f17a bd1b708f bc82e204 3da8dfa3 bd5f0b23 bdabe657 bb1de140 3d5f97a9 bd493956 b9b94c39 be44a4e6 be1cf6f6 be0688c5 3e850273 bb937e2e 3e868558 3df33adf 3d74807a bdb13b02 3e058e71 baa9def8 3e249d0f 3b9c8da0 becc22f3 bdad252a be4945dd 3df81706 3c81c263 3eae58dc 3eec7384 3df27884 3e67ba3b 3ef06182 3e95e239 3e53405e 3ede0f68 3e4e09bc 3dc5af81 3d2bddcf 3e547143 bd9ce1e3 bdf02012 3bf182a0 bdd8ce6a be988d46 be9426ef be054c0c be99fcb1 bed01b7f be2ef45d be9df802 bf098898 3ec61ee6 3d5c088b beba82ca be243e7c bddce57e bc15a806 be76efe2 be89a276 bd64169b bddbd8f7 bd1e4dee 3be0d7da bc8ae1a0 3dc7ea63 bc3ee358 3defec66 3e1ef847 3bd452d8 3e491f25 3e5c4d38 3db88d13 be2ad46d be8ab31c be24e538 3cdd9570 3e19a746 3ce36659 3da9764a 3ca19643 be175473 3d4e755b bd57b1dc bdc6f031 bc247826 be187714 3ca94f43 3e391edb 3c65b011 3e692de3 be5f71f7 be8a666a 3c6edf68 3c323de2 bf5ccd52 bdde7cfa bcbfff34 be43e5dd bcd83535 bc96de11 be476e3f 3dfff241 be825e5e bef8a163 be121fb8 bd9a6e6c 3d6c5998 3e43b306 3d4e3964 bc3e72da bc080c1e bc3acbc9 bdce33bf be66239b 3d105eee bdf2ae25 be441361 3eda212c bd553d21 be8e2b7e 3e807844 bddc7b2d becd8fb3 3e5008fc 3d19c679 bd985fdc 3e0cb508 be045001 be51863b 3f034302 bebebcd9 bda91b13 3dcb8220 bd517476 bd099ec8 3dd87bf6 bd2d360f be23dd7d 3e44e7e3 3e44b200 bf0a9f4a 3e87e7ce 3d937b8e be8557dd 3ec47667 3cc0737b beaf475b 3eee6b3c bb67eb16 bf021fe8 3e76ef17 3dd2af47 bdd98550 3d8388b1 bd56d0e9 bdc664ae becefa41 bf5fee1b 3ef4fc83 be290030 bdda9307 bdf10fad 3e05688d be6a912f 3dd8e387 bd8d5ba6 bf2b7f01 3ec0aaa6 3db20103 3e3a5652 3e8f7b8e bca955a7 3c967b1a bd69f2c5 be0cf576 3d2361af 3e9164f8 bd5771b4 3d8daae1 bcb5c08a bdadfe00 3e0cbba2 3d836fd2 3dccb07b be3a0a99 bdcd3719 3e3e8524 be2fb378 bdbed7e9 3bb52b54 bd26e636 bd06f82c bd08f6f4 be1af909 be719ca8 3d43eee1 3e4873c5 3e420afc 3d407127 bdd37593 3d940ed1 3d23b32d be356d44 bd6841c6 3e55201c 3ea56c6b bd5b1e58 3e1b239d 3c99c85a be5a9794 3e965322 3ca23d3a bed7a02b 3e265316 3e5739e3 bd2ce130 bc1768ee be17d87d bd9e5fd1 bd942dba 3f40f7be be936336 be8ec9c3 3e502187 be9208e0 3e50c097 bdf8d4bc bc274348 3e5797d6 be610cf0 bc99e8cd 3e7e715c 3da8d242 3e4f626c bbe7eed3 bd817f98 3df11a1f 3d854e09 be6986e4 bd456e63 be81eb27 3d025ba5 bd567a9c 3c6137d0 3dd6b17f 3d1708fc 3ec95bc1 bf34a788 3de4483c 3e9cbf50 be1e1bfd 3e8f68cc 3dd2c5b9 be4d7657 be2d3bdc 3cec9e56 beac060f be6cd5e1 3e2b34b1 3dd5f193 3e1aadc7 beb80354 be3d8227 be6f6fde be3553eb 3e5a1d6a 3dcf123d 3d147dfc 3ea294e1 3e1e9549 3c044aa1 be2b0070 be1b0e56 be3a99d2 beb19aae beaf77ad 3d8346bd be16d4af 3dbca2f5 bd93cb20 bde47869 be032369 be65f537 bd859a3c be04aaa8 3d72f6ba bce57c1e bdc5f758 be6d42e8 bdcc6e75 be292b23 bca691f5 3e928c53 bc243fac 3d80637a 3ec51af9 3b1e1544 3cdfdbbe 3dd94e74 3e290542 bde33c08 be5f268a bdaadfd1 3d80a639 be0aa392 3b81d457 bbedf04c bda89da8 bdb018e8 be1aae20 3d9f6c37 be837728 3d981394 bd5b2912 be818af7 be87b2d3 be149987 bd94f6d5 be1634bb be9fb6aa 3e0aa5cb be367fba bd9eb4b1 3e11a739 bf06aa65 becdd983 beb44372 be92c80c bdd078ba bedc38b9 3d6e8a5e 3e74e93e be7dccc6 be5134da bd5132ca 3e08dd21 bd989fea 3e072107 3ebbe45f bd66323b 3d8bcded 3e2dc02c 3e3b57d6 3e13800c bcb6aca1 3c1a7a54 bd9d0d74 be6119f6 3dfbe069 3de1587e 3cd709e2 bef0eb39 bd86f945 bbe76602 beb5a337 3e801a74 3e4fd938 be6e65eb 3ed66c39 3e3d1c0c bc7defd7 bd36ad33 bcb1bacb 3cf0656c bd9b0449 bcbfff9d 3dff5cc2 bcf1dc4a be098787 3c60f7fd bd9fdc40 bb3aefbf be165c47 be541e9e bd199c29 3db66a69 3d9f2866 3dc58760 3db293a2 3d82df0a 3e3d23db bc981002 be4248a1 3d6c2d92 bd0ef15a 3d90359d bd8ee9d0 3d28bc3c bdac0eb4 bcebd099 3db3c5df 3cab9344 bba8d928 3decb070 3b8bcd09 bb860ea7 be98b7d4 3dc5c7e9 be74dde7 3e90f1aa 3f472c56 be749dfa 3d468567 3e7ec043 bef5ea70 bd26c67c be0d4169 be443a1d be38f64f bdf36543 3e2bc61f be9d16a3 ba98f847 3e38d421 bc60e716 be3876a9 be12b6a5 3d27c362 be8ee349 be80ae73 bd7e266b 3e465c6a 3d006127 bdae568a be08ae18 bead651f 3cf22a5a 3e6ed906 3df0e7b5 bd79d3a1 3e3a1821 3ef64293 bce1c569 be3ddff9 bcfc0fbe bd6d05ac bdd35c5f 3daffa80 be7164a9 bd844a8d 3de6edc4 3da99d5a 3e1435a9 3b729cd0 be124149 bf1a5fa6 bc236b33 3e396cc8 3ec66b75 bd1daaf6 bd16af11 bee84433 3d5161e5 3c911cbf 3f51e314 3dfb2032 3bcca79e 3dd0970e bedaacab bc129cb5 3b723443 be3c54a5 3da3072e be3fff67 3dd8f8d4 be061052 bd15d2d2 be3217d5 3cb601c5 bc038e5f bb81e731 bd545906 be440f7a bdb9f8e5 bd7e0cac bcc8fc05 bb14611a bd2f976b be8c3cd8 bead504d bd325046 3e3583ef 3de1d4f2 bd830eb9 3e7d7314 3eb457cf be296ad5 be8fa362 bd7239f5 be2a6af1 3e20a58a be31c36a 3d3b74e1 3e9764c6 3e479fe8 bcb17154 be121d06 beabea01 bdd41024 3d8ce220 bd913090 bd13d469 3e25eead 3ec13908 be0b7d48 bd69f779 baa6c676 bd17a529 3f40d925 be57f916 3e0ba9c4 bf10066e bde47133 be5b1ad5 bf1ef2b7 be90b79c 3db9b063 3e0d2ea7 3e216708 3c2959c4 3d5a904c 3e5b3d15 bb3fa211 bea07a63 3e3bc7ef 3e815b68 3f36fcfe bec8ba85 bdd849c5 be89596d bcc31765 3db8b6b5 bcb0dfc7 3d239446 be0c847f bef9a091 be2c11bc be1ba542 3eefbcb5 be767d2b be2f4943 be03315d 3e559481 be52c524 3d4aaf82 3e8854e3 bc9da75f 3e7eb271 3e1cf6f5
feature_net.conv1.1.bn.weight 16  3f08be10 3f9d4092 3f3698d0 3fc71924 3f2ebe80 3f8f296c 3f4271c8 3f7f81b2 3f54068e 3f7a6e2a 3f9c806e 3fad2431 3f5bfeb6 3fb585e4 3f2dc0be 3fa58f43
feature_net.conv1.1.bn.bias 16  bf1bd864 3f1b5b63 3e9168ab 3e857ab3 3dfeff9f 3e2dc503 3e8b0a11 3ec12446 becb5dd0 3e7bb072 3e15dab9 3ee517a7 3e21843c 3ea72f4f bebf8102 3e897f65
feature_net.conv1.1.bn.running_mean 16  40d5b739 3ec06e7c bf6f4b1a c02974bb 4007fb40 c038b684 c047e750 c06a5905 bfdd5a09 c0a4560d bf14a4cb be879cc7 c0aa4825 bf98c85e c019e0f9 bfa8fd7b
feature_net.conv1.1.bn.running_var 16  408e5efd 40ccd185 409ac531 4197e2a0 40d3a0b7 4138250d 40c05739 40ca1d09 3ffbe5e3 40ab4695 409b586e 40b6bf1e 40e7284f 40c24ba2 3f45679f 4083ec0a
feature_net.conv1.1.bn.num_batches_tracked 1  46b2e800
feature_net.conv1.2.conv.weight 2304  3ccfc8c9 3da52f27 bdf62b91 bd5b26a0 bd3ba809 be4ddc52 be4bfbd5 bd4cf5e7 3dbb208d be8d8986 be4fb455 be92202c bdc2d554 3ee7b8ad 3e6ab71d 3eb7321c 3f0d9677 3dd0d3ee 3c49ab3b 3eed563c 3e5fe0a2 ba9f9316 3e57862a bd4b0666 3dbe4739 3e3ae029 be437d84 becacf58 bd52b6f9 3d5fb559 bee8c44b 3b2ef343 bcfe5d28 be8dd245 bb44c6bd 3d8edc0b bd91e398 3e9390f1 3edf8ec7 ba448b58 3d7f58c2 3e91f924 be335660 3af55be5 3e10154c 3e1c9037 bdd50200 3e1f157a 3e5602b7 be1b724d 3ccee020 3dc4830f 3e8c0fad 3d8bc538 3e5375b1 3ea991d2 bd315989 3ea4dbe9 3e1288ac 3bb2fd69 3e4b6441 3e8cce4b 3ded0311 bdfd0a50 be11a41e bd72db56 bd167688 bdae57d3 beb0dbb3 bead80cb bdd1eacb be0b2512 3e254a20 3efdc4c5 bc3a5dd0 bcf2bd76 3f017d6d 3e17ba25 be05faf9 3d2ae4c4 bce26cdb 3b339256 be33c4cb bd84d42f bc8b9a58 be363bf8 be0aaf56 bd9a3842 3db6c478 3e2cf0cd bdd8f58c bba99030 3f006063 be1e213c be891d40 3e4b668a 3d40d7bb be0d2927 be0d7863 bd6358eb bcd25f60 be755be1 3d9a8660 3f2ece22 3f092462 bca09481 be888582 3ea0b037 bcfffc7c bd2f53f1 bd8664ff bd579b2d 3e185a7b be4ac73b bdbb9efb 3e6b4b7a 3a592ed1 3cdb4334 be1734c4 3e8bf4cd bd603946 bdcd1934 bda76756 3c01d7f1 3e483fe6 3da60f63 be9d3625 3d38cc92 3ea97720 bda6ce5e 3e287c1c 3e3e12bc bdfcead4 bcb3aa73 3d3c49eb be4d4512 be12d3ac 3e10a2e1 be8c6e2a be661750 be1d5d96 be75e80c 3d9edb15 bd80e9ed bc1b77e5 bcf4e86f 3e4728b9 be0b0224 be210545 3e3b1286 be456f39 bd99baf3 3e4158fd 3dcd3ab4 beb0ad32 3d44388d be4c5492 bfa89341 bef4bdd1 bd87f255 bf189eea bdbdc0a8 3ecaef5c 3dfda793 3e55760f 3e692964 bdd917a8 3d7e0ff9 3d2fcae2 bee1c13a 3dc97607 3dee1228 3d1335f3 be3f2eeb bcd59687 bed38f40 bef107d1 3e9086da 3d796468 bdf442e5 be751e98 3d8ceb8c bce6a764 bd972d02 3e8275c8 3e16e9e1 be2dcb05 bc92a65d 3e0c52ec be8361e1 bead02af bedc8c97 becb74eb bec5ac2e be0b7449 be6637c8 be6e4641 be12b903 be81dbc1 beeb02b2 bdbe8cfd 3c49f7b6 bd89640b 3c74c3f7 3e210c1d 3d9958af be31d789 3e8fa7ce 3df1730b 3ebe1489 bcd4077a be3d59c6 bd80296b 3e1924fa bd4cf634 bd89554e be5db637 be9e9ae2 bd18687b be27b30c be644e40 3d843a7a 3e88f5d5 3d223b14 3cb78cce 3ea079a2 3e62d66b be000bc0 3d7758ad 3e5eeb8d be5d1b3f 3e344565 bd561e03 3d90e660 3dc1f682 bed6cecd be14aa56 3d4ee4d7 bebb9335 bd5caad5 bca8fe35 3e3a6962 3d1a5dcc bdaa4e2a be619f4c 3da5b0cf bd452065 bedc3fff bd9185dd 3ea87689 3da6add8 be879237 3dd5ed78 bc8d230a 3e81ea9a 3e2a9319 be1816ec 3e6e4308 3e18763b be87f762 3db331b2 bc4d32f6 3e0b2067 be686808 3bf6f951 bea93945 bf213721 bc67c136 bda6daf9 bcd951f5 be25ed9f bed34af9 3e5d1fa7 3db2a66c be8a799f bd118491 3f0cc755 3c617015 3ddc41c7 3dfe8a35 be9d2bdd bd7516e8 3d48d274 be7a260b be25693d 3e7637b6 be60c258 3d9cf4ac bb18aa31 3dd0e3c8 3c3f21c8 bde81d6c 3e8e11e9 3cd0f95b 3ddc3025 3dddbbd2 bd8e78f7 bdb98c03 3cccb5b0 bc140ac8 bef5a7fa be1c6200 3e7a43a4 bec431e7 be0315fa 3e29ecff be9408a3 bdd6d159 bd8655df be9f740c be20d4f0 bd66ad96 bf0d1324 be4a4bb5 3e20095a beafc784 be8cd8ed be968718 be928a0c beaef5d2 bd30e45b be1ce4a0 bdaab2fa bdb112c7 3e42f8a6 3e77cf06 3d52d3e2 3ec98c4f 3f201114 3e452044 3ece87e5 3ef293c8 3e886f23 bd6d1ac9 3e168b90 bd87cf6e be16d757 3e02522d 3dadd171 be674c02 3ea35d50 3e95b272 bd91b4a4 bec21f0f 3cc404d1 3ddf4192 be79aba8 bd12f80e 3e3fa686 3e0866f0 3e2a0407 3df77fb7 3d7111e0 3e5ddae8 3d48599f bd95d29e 3df003ec bd795aab be75d3f5 3e5b5ee5 bd29163e bd5a2324 be8314ce 3e9113f9 bd0f5ce1 bea7bccf 3ed725ab 3ee2a36a 3c58368b 3e186a23 3ce10115 bc3a9acf 3e958a91 3dbe6dc9 bd526338 bdb66804 be2e61c5 beaf57c3 be24a424 3e6f6962 3e35df51 bcab0ea2 3e06c562 be4105f4 bd1afa4a be2e330c be8800a7 bcb0fda3 bd07d109 3e221ebc 3d41b4d6 bda798da 3da7e628 bd89f62f bbd83192 be37e095 3d960f57 be6fdf1c 3d901b58 bbe67da7 be45a205 3e3866e1 be796904 bec39306 3e13f4c9 3dd57c18 bd89425d 3e126c30 bf0d5e51 3d842387 bd2d2af8 beba7e08 be899e73 be9babbe bd8b6179 3e779b7d 3d16e998 3cb74205 3eddd735 3e02d97c 3d8b17bd 3c014905 be8d2860 3e40b081 3dc10d7c 3e50d4c1 3c36273e be75527c 3e81b2f5 be3c9d95 bec58291 bca7812d 3db3dda7 be9585ee 3e1e053a 3e16a180 beafbe02 3ddf24c3 3e8e4644 bb95eb8e 3e16e729 be47408a bbf62716 3d9fca45 3d821123 3ea203aa 3e0a9153 bed5a8b2 bde005ae bc847f05 bedef962 bece6e51 be9dc2fe bee87920 be87e3cc bd861987 bd205a02 3e037448 be800f3a 3e58c974 3e2e45f1 bbe0c885 3f602d48 3f426bbe 3d932ab0 3eb220d1 3e525c78 be1267a6 3d2b2a47 bea9056e bde66572 3e42e6f5 beac9c61 beaeb974 3e5475d9 be814952 be950453 3e392cbb 3e053340 3d01657b 3e891386 3ec5f417 3ec751a3 3d374d58 3d97f8d3 3e929f66 bdb12f11 bc0ab73c bdab4040 beb26c79 be28d0bd 3db2af03 bedba1b0 be1ff9aa 3dea4cf3 3d6086a0 beb0ee13 bd683c85 3ec09827 3dda322f 3de72a19 3cc412c2 be4d1400 3cb4b55a 3ca04056 3e68f32c bc6f25dc be37d3b7 3c399b69 bb0083c6 bea71ead 3e36ab22 bd3672ed be6bff6e beb8b0ad 3e9e9225 bd48ffc6 be00d104 3f024901 3d81029a bed13431 3e4de142 bde28507 becb716f 3e005e60 3dc74005 be05adf6 be745c94 3e001d6e be2ce8f3 bdf7f302 3e3a3f6c bdab8867 3e6bc930 be5a8e77 be74406f bdbb00d1 be39d22f beff4b4e bc477103 3d10aef2 3e027a8d 3d0b1134 be8b291b be0eca67 be751a4b bea996dc bd30ffc6 be5d8fd2 be465f23 be0263d1 bceca2af bea7d709 bbee8a2a 3e1890a3 bd931ad1 bde1eb9a 3e54a3cf ba9e36ea 3dbd3019 3cc57714 3c809bb4 3e3ff914 bc945753 be833ba2 be2327aa be5f683f 3cc326bf bde9d41b 3e7f8171 3d107cdf bd9d24af 3daee99c 3d1a2015 bdde74d7 bcdac249 3dce6096 be458fdd bcbd8dcd 3e70facc bea459d7 be294065 3e90bfa6 3e04ec0a 3d32cee3 bd998eee bb88011b 3e70536c 3e2a317e 3d621761 bc0855b3 bf094afb bf64d50b be488444 be2159da be14b540 bcaa4a47 bdf963fb bdddf2f6 3e782ec0 be89653f be14f316 3e477c18 3d1a8b25 bdaee833 bcd2e133 bf19ad8c bf9c070c be482ae2 bf342c38 bf84f093 3e5a255e bccd9b9b 3da209c3 3d8916f8 bcfc2297 3c815953 3c77c133 3cee0c1e 3e805e3f 3e92bf59 3db6a2a4 3e1cac5e 3d056469 3e22ec86 beba6b1a bf272e02 be16b98b bee95fbe beba2939 bd34ef66 bccb3f8e 3b5b73dc 3dd696f2 3e36cddf 3dd8988f 3df760ac 3dee08f4 bd94dfc2 3dc850c5 3e08218b 3e306f15 3dac945b 3db89cb7 3e775f72 bdbc5400 bef9aa23 be2075bf 3e4cde09 3e0576a9 be8b6584 beb19a77 3da71ccf 3e46456d be1e30ea 3ddc9922 3e4ec979 3dc2ced8 bd51242c bd584d3b 3dfe97e9 3e11d6fb bedeace1 bd1b5545 3eb160b8 bdb4db45 3dc2e27d be31dea9 be2a245e bdc04ab0 bf0a615a be510203 bdb0eaee beb9fae5 bdafa28d bd3dc290 be120f7c be0dc05d bd879504 3d952efb bdc925ed be6d2e22 be8f91c8 bc7050d1 be06d9ec be38284b 3cc3beaa 3e0a154f 3e9a7210 3de3d42f 3dc5796a 3eb1a251 3d168ac7 bd96d02f be38edd4 3e1c779c 3c87d273 bf1cac58 be8f9fbe 3e08a5b5 beaa4dab bdfef88f 3db44c72 bdf21f1d 3eb79532 bc86c65c bed3aed0 3c4c3406 be5ddfdd be870101 3ccba675 3e0ef9b4 3e82fd09 3de73387 be05e675 bd33ed8a 3e8eeaac bea56ef5 be4614f5 be84e476 bd2a091f be9c364e be07cdcb 3e0e17d1 bef546e9 3e3cd654 ba8d697c bea55a3e 3e47ea4b 3d918288 bde6dcd4 bc3fcb3a be06dc53 3e178d31 bdadda41 bc8ccd88 bc3343bb bd98e96d 3e6dae27 be415a60 3d6fc0ef bde3fffa 3e2e4f39 3b36699e 3d96c36f 3b728127 bdb82fe3 bdf644e8 beb25404 3d53a731 be239fb9 3e2b21e9 3ec654c2 3e49f496 3dfa1127 3e48ce88 bca9ab45 3e9f7460 bd3b34eb bdf4550a 3e5605eb 3ba50faa 3c29f0ab bd086f3b bd8c774c 3dee27a6 be254c21 3e7d0707 be9ad592 bb08a676 3df47861 3e012dbe 3e5973a6 3cb4502f 3da64084 be95e596 bd1774dc 3ddffc94 3bea9f47 bda59d50 3dd8c65e 3d730da0 3e8691aa bd4e5aa8 be6a0481 3d3fd1cd bebb1dab bdca112c 3ea2a348 bd9984e6 3ee23bfe 3d05cfe2 bde4b651 be002a4e 3d504f97 be16cbfc 3d066fc3 3c90fbd5 3d2aef83 3b95391f 3dd9abb1 be627d07 be2ae1d0 3e2bb18d 3ddde92c bed6389d 3f15aad1 bcab535f 3dddfe3a 3b7b33bc 3e0d72fd 3e6c414b be8257b5 3dff838f 3f1d9561 bd8ef1a5 bc24a0a9 be302b69 be75e4eb 3ddd8d7b be3dfe49 bd8986e1 beb4f8c2 3f034bf3 bf13fdbd be143283 3f07c01e bf01502c 3daecb6a 3e587b82 be4efbbb 3e0e5cb4 3c71768a 3b8aa342 3dfaf03c bdac5a08 bdb26148 3da53abb bf1c7237 bdec3696 3ec19c45 bfa4d1a8 3dd03ba6 bde6af1a 3b47f4ca be0d4c8a bebc65a2 bd6a8f65 bdf8b1d1 3d861831 3e5cf464 3df63e38 3e5fbdc7 3d487104 bdcfa9ef becfe348 3efc1ce8 be647d96 bd21a296 3e93d34a be5abf86 3e691ebd bdd32227 3dbb570b be764d8b bf10afd9 bdb03581 bda75e8f bec6c421 be9e79b0 3dd4bef9 3c4e4ccc be31a5ef bdd72c49 3d56e683 bc6cd213 3d594054 3eefce90 be20ee67 bc25b3a4 bec1a498 3d941044 3e03e388 3e82a82b 3e1adcf9 3e5271b2 3ee336b6 3c681d30 3e5c80d1 3e6eac32 bd015ebb bc9d8624 3e581a00 3d154931 3d84ea0d 3f03826b 3dbe85e5 bc88c4b6 bde5bc3f be19628c bd90e535 3e0cca80 3e18daad bd9bead0 3e71ebd3 3e083636 bdbf0c4a bd12e975 be02e27f 3dccf0e4 be32056e 3d9b57aa 3de51e84 3e47c44a bd9c0761 bdc61317 3e44bd30 be64f934 3e16a301 be1b6b94 bdce3829 3de6075b be5ccc1f 3d1680f3 be21768b bd486334 3e5a9928 3ee46c2f bf28b8e0 be969397 3eb9a5d1 bd1738c0 bead6a8d 3e490da5 bded4c39 bc1955ac bd2b14ac 3e9d414a 3d27647d bd967337 be25e284 3eb3179e be8e9711 bd90e869 3de014ea 3e9543b0 3ddb80c5 3ee94764 3c1e20e8 3e845088 3eb56f06 3e03102c 3e18dae8 bdbbe437 bdafa479 3e897e20 bdac3604 bd47f928 3d73f819 3e1ff7d8 3c2185de bccbb672 bccc47a0 3e2e66d2 3d7d3dd4 bdd61d28 bc99ec6a be880b50 3e0df415 3dc11412 bf0be588 3d260b0a bd25cc1e 3d5c9eb0 3e6fffd5 be4d0d59 be1e52d8 3b0b5142 bda034ac be6f26e5 3e279f0b bde7d458 3eaac263 bd70bae7 be9000c0 3efb85a3 bd81f682 ba250b37 be176ed2 bc75ccf1 be269611 3c919d61 bd83d823 bdfe4f17 bd1e4f00 3e2160d4 3decefeb 3ea3dcae 3de5566a 3e0cc33e be53d33d bcfb13d2 be69d8f0 3f38b9a1 be443058 3d4038b2 be6a90ed bdb4c364 bd2ad0bb bcf24ed0 bdbb64b1 3d7053ad be0cf96d be4cebfc 3e05ec73 bc2c1ea6 3dda9e73 bd285b4f bd8e7421 bd84b588 3b71f994 bc9932b3 3e7fc581 3d6516a4 3dd9f71d be2a660c bddc317c bd275638 be368c68 bed220ec be9c0989 bd508542 be1d64b2 3e8e00b4 3ea2ebbe 3d92b6f5 3e0f4896 3da81eda be8946f4 be266507 3e354788 bf06245d bdc7d6b8 3e1419cc be8b3e81 be8325ba be8d2097 be57e1a1 bdb2ab93 bebbe858 be2dbbfd bdb6be56 be0ae74a 3cd304f8 3f3b03e8 3e9a92a6 3e739649 3f17c1a5 3e908025 be5d72a5 bd6f8e13 bec02764 3d80ce7a 3e9e2737 3db9925a 3e8056b2 3d8882b3 bd50a806 bdcb5726 be18d0f9 bef63da5 3df0cc53 3d937dce 3db79034 beb5de12 bec25b17 b9e81cf6 bf1035ed bde2ac80 3c00386b be6fd81d be5ea041 3e08af8e be25c2bd be547984 3d7d6ff1 3e8df528 be636b10 bed91241 bc8c1bad bea8d82d 3c6ae432 3e9165f7 3ea2120d 3dece503 3d316ab2 3e5e7297 3ed2c44e 3e1aa093 be6006b6 3dcc9bde 3cd81dd7 bf2ad33d bebb83d1 3ac1e2a2 bed9fb95 be97c81c 3d5857ea bd80eeae bb14f837 bde34263 3decaf01 bbdb1c33 3e3bb549 bf4ae641 be126b36 bdf6a822 3e62e686 3ea1f24d bde3ad38 3f0e7095 3ece2e12 be083858 3edb6923 3de834e1 bcc69580 bdf26017 3d8be36d bda8a54f bc25b3a9 bdfb6a4c bdd604d5 be5f1584 bdd89ddd 3d3ce967 be6df76a be661f95 3e0598c3 3e2cb24a bdd6bb5f bcdd8a65 bc2d9462 3d32ad48 3e0379c3 3daf83fb 3dbe0329 bebb3344 bf26c6fe 3e356c96 be89bf4b bd854aab bc7e82fd 3e4e3efb 3d272f7d 3defd6cf bdd4d242 3c102b44 bdfb8064 3c8095ee bd8513da be2d6f04 bded83ae 3a9135e1 be5a2f9e bd8b9b7c be1059eb be893c58 3d490f78 3e9ecdce beb82c8c becc8ee6 be6961d2 be0a6e84 3d73966b 3cefcd4e 3e7a004e 3ec0c531 3e107444 3e9225a0 3d771d69 3e25dd7b beb2e067 3ecbe89b 3eb239c9 bf1bd219 3eb49c0c 3e838864 be506abe bc2ecdb3 bdfcc061 3d469cd0 3e9dedae bde5e30b 3e83980b 3d9bcf51 bd659ca2 3dabbdcf 3e2d579b 3efb75bb 3e33a5b1 3e453641 3e4edb50 bdbe3845 3e164b15 beb56330 bec6357b be01a197 3e8d3c7c 3d3db762 be16613f 3eb64d35 3de2588d bea254b4 3dfe5347 bd78bf84 bd466f0f bd579c49 3df3e96c beea73c7 bf1a1264 be00e115 3e47875e 3d9fcb6f bd481f37 3d870a74 3e77f502 3e31734e be87bffc 3e0d1ae1 3cf8a633 bf30ac04 be901513 3c7de528 be224a2b 3c10c6e5 be950026 be0f403a 3f117272 be971ba2 be2186d1 3f0be0b2 bdf90637 bdc61b30 be644c98 be1a6f61 3c13cd46 bf7f32ee 3c2c743a bdd91833 bcbafb55 bde3057e bdedcfaf 3c0d3de4 bcecef8b bd9fbe53 3efd274e bbbc0460 be964af7 bf2d33a2 be16096e be835209 3e3a1362 3e86116e be82d51c 3e7b71b8 3d8370d5 be5eda34 3ea26a24 3e0ad747 be1137d1 becdeb6b be907eb1 3dddfc8a 3e67ef98 bee5c565 3d9c8b66 3ea91a76 be1083c7 bae6d3cb 3d252fe9 bd8d1e75 3e544799 bc403cca be0606ed 3e3c9ff8 3daf9d95 bda3cfa3 3d412756 be93cb77 be7e163d 3dd3db01 bf0d53f0 be8a1dfd 3e516959 3f244d71 be4e2c26 3df19de1 3ea86ef9 3ec5370f 3d5329ef bef3466e bd5211c9 3c78f3f0 bd306a58 3e22bb83 3cf9d0b2 3d3724cf bd8d4d7a bd7b05aa bf0191b6 be0520ba be256efe 3c5ab9e4 bd3f88c6 3e28efd2 3d4c83f5 3e3ada82 3da0cb0b be05cdfd bdf3aa2d 3db0e1a8 bdaf1152 3c8ab86f 3d72391d 3c4bf4dd 3e337c15 bda67d29 bc91520a 3ec0e501 bde785cd be45aec4 3e484de8 bd8a0e13 3d2d6784 3d3a724b bc3d23d9 3e45111b 3e1f788f 3d6685d1 3d4f94fe bc0302bb 3e0b5983 bc65d219 bd60e472 baa71daf bd84c1fb 3e957a6a bdc37c05 3e22de41 bd6d149f 3e654d1f be0a6106 bd3bfaa5 3cf779bd 3e827409 be590dec 3d92c789 3e102c9a 3df55df7 3e3f6ab4 bba89fd6 bda757d2 be209dbd 3d267812 bcdf6104 be88029b 3e51d39b bd406899 bd6fa93e be1d81b5 be357b03 be5d8052 3eedb777 bd4bdb1a 3dc00d78 3ed029f7 bd459373 3e3bf266 3c4a79ec 3df7830a bdb43225 be2aba63 3e65a9b7 3c242220 bdac8893 be147e83 be31a518 be90f6e0 be50c758 bdc3cbee beb5d561 be42a14c bcbdc177 be86d5af bf08bb0b 3bd50468 be34cd85 bd35ba2f be37a922 be867101 bf458365 3d997cb2 3dac4223 be84d95b 3e23a8f0 bd759c38 be866d0b 3e288aba bd9d944c 3d3b64ac 3dabcbf9 3e3ff4b9 3a844ec7 bdb63cd2 3ce0aedd bd399485 bd8f5312 bef560d2 3e14c1b8 bdbdda0c bf47c9b8 3aaf1060 3d008dbd 3d4a28b9 bd756ab1 bde16ba8 bdd0a1b5 be4ac0f8 3d55630a bcf627bf bda53c9a 3de99dc4 3dbb2962 bd5a6daa bcc58485 3e815e4c bd74cca2 be4fe770 c0124187 bdfd6a8f bceaa28e bda0f19c 3db25403 3dc8b2e1 3e6e99ef 3e1523d6 3e249397 3dccc188 be0dcbfb 3dc94428 bce1e27e be8cd108 3cf716b0 beac5ab7 be8090a2 be33f865 beff6e74 bdeff569 3cd8f2ec 3e11f70e 3d0f7cd7 bd5494c2 3d4c6ecb bcb8cde2 be4fccca 3e3ae8dc 3dedf56f be43c096 3da1efa8 3df0d683 3cd6e5ce 3f01ebd2 3f565b94 3dba08f9 3e36433c 3e9efa62 bd2ab1aa 3e813dd0 bd579ab9 3e4c85fc 3f31081e 3d4aff1b 3ced85a9 3e8ce37c bc9faf8a bc63a4e0 be969ce0 3d87f49d 3df277cc be21a887 3e87f3ba 3dc5b7ab 3d695dd5 3dac0754 beb9a607 bf2862d6 bed703aa bd10b7bf bf0be7a1 be807a62 be979cd4 befccd4c bdd13bd4 be4b7be5 be0d48b4 bcd9c8cd bc526496 3c90629f be30bee6 3e0d5b39 3e770928 3df782e9 bdd84f43 be6cc1f8 be1da5c2 3e06bfd6 be80ebb2 beac1088 3dbe3deb be151ebe be26378c 3e82827a 3e963dd5 3d81a667 3de396cf 3db835b6 bd8cf13d bda94c32 be13141a be43e836 bd4beadc bccf680f bed1d640 3cf36e63 3e4e155f bdaaaec2 3d637c11 bdfc7ed0 be67795c bdbfc7c8 be0bac0a beb91281 3997ac63 be1a0982 bebda56c 391f1b8f 3dfb5a06 beb47d00 3e21707c bd73b5b8 be192986 3d0f6907 bc0b446f be951e4c be5211bb bcd0c04a 3d276c6f 3df585a3 3e50529a bdddf185 becf7841 bda5f608 be2cd739 bd1710d2 beb504df 3de49247 3d9117d8 3d45c23c bd9d30ea bacd182e 3dbe00d7 3cf54e6a bd508186 bd869da6 be0ff8b2 3e0843bf 3d9f6889 be4b798c be9c9603 3da95cc2 be879675 bd3dd093 bea218bd be81a45e 3e2b510e bd3da3ce bf125d33 bd0dc1d3 bf18246f bf44c9f8 bc7bdd82 bea0a59a bc5d68e8 bc79b43b be53765f 3e1f3965 bd8ef0aa bf73ca8d 3e314217 3e1c6a61 3ed095fe bd83a99f 3e65d786 3dc17ae0 bcadab90 3e7a60fb bdd5f665 3e86bc00 3e9de37c beb221d8 be90e768 3dcbd927 3e4f9307 3e77bbf6 3d868184 be25a3f8 3e13b52c be8962aa 3e3b2337 b9e2579a 3d3e0421 3e3f36ec 3e1fedb3 bdab960f be56a4f5 3c5db6e8 3e1d3a04 be272366 bd901629 bddcba58 3eaf09b1 3df97bfe be1816ab be0903f1 bdf17059 3e3ed713 be28abc0 3d8aa2af 3dc807bb 3edbfe8e be74b391 bdbdff8f 3ea35f23 bccaa5f6 bdef23b6 bd05cb29 3dd91356 be35eda4 3cb4ecc3 3d173a94 bf0bc7b6 bd998876 3e9c2053 bea5e717 3e88dbca bd9ede01 3d72ad53 3d80c632 bd1f2510 bde1029c 3e627171 bdcc03d8 3dd28f71 3d70dcfb be8d68d2 bf046861 3da01737 bd6d734c bdd8ce8c 3e79084c 3e27fb1c be26a8db 3d6778eb 3f040dd7 3d8fd233 be962242 3ebe84d0 3d71d9cd be215a9d 3ea30343 bcb697ad 3e8518f5 bda5c39f ba6fae14 be7b5604 bc98c8f4 be828081 3e974faa bde1154e baf4b980 3f032c05 bcf860f7 3cc7f26f 3e3be3d6 be34c9d9 be249012 bd674780 3df54fd9 3cafd1ef 3e6a4a0e 3d2322e2 3d89367f 3e360a6e 3ec9d54f 3de38f97 bf3fe364 be1bd38c bdcc9dee 3e9729ed 3dddc459 3ce7bbf3 beb7304d be048dc1 3eb50c9e 3e346077 bdf578df 3e2c0e3c 3e5b82c3 3de23a7f bcaa6a5c 3e0074f6 3dc7b717 3e5a2476 bf09848e 3dc782e5 bda8d5ad 3e559621 3e181eb7 3e14da49 3ea51f80 bd73b204 3d6d5b06 3e1e2275 be4805c6 3d242de8 beba2cde bea76d17 3c904281 bdf5a93f 3e0d6ec6 bdec6523 be7f6557 bc7a1fbc bee5eb63 bf7679e6 3d404d53 bc45dded 3e119d24 3d601079 3e651dc0 bd8c5a0a 3e7a251f bd7a7c64 bdd786f0 3e2c5c12 3e31003e 3e82a642 3e7f05fd 3e219e4e be6e5de1 bdabad75 bdfd9d2e be4e76b2 3e45d586 bd2b5d60 be05ff20 3de37f1c 3e02efd9 bdc6da4f 3e8d0edc 3d8d6a51 be0e49af 3e3a0137 bd7c68aa 3f0d7231 3e7f7233 3e841264 3e4c2279 3c40f0e5 be1366ea bdce47a3 bd7a1cef 3e18e550 3e173792 bd94fff3 bba8f674 3e8da787 3d1075a2 be0b401a 3d03575b bdd453c4 3e8fa0ce 3dafb3e0 3e2561c9 bd954d0e bf1a4406 bf02765c bdb13286 bdf3bfff 3e34966f bd5e3154 bc4d710b 3e8daf88 bea455a9 be4e2fb0 3ebd892b beaa22c0 be9264fc 3ecbec9a 3dde4a30 3d951b9f 3d523efc be819b3d 3e3cb396 3ca75d0c bdf0f847 3d35ba68 bdd7121b bdb0da68 bf304c44 bd64dad6 3d3f0ddb bf73e189 3dedc927 bd45e69a 3e803bb4 3db70984 3c994289 bdb5d260 bdb57093 3e7f1e4e bea06f05 3d18a961 be2e240c bf575788 3e133108 bd3804af bd4aad6f 3d8c29f9 3e7e5f0a 3e35fa0b bcfc7b50 be0eba1f bd9ca5ef bd3fece8 bd941c9d bd9b0407 bd5bb186 3e1a6772 3f085df0 be8d217c be48c30f becb4496 bdcc3593 3e43620b bee6a3eb 3c078f3f be3f91f0 befaf65b 3e076679 3e3e7f73 3e9a485a 3f108d39 bdddc5ac bedf1b1e bc8bff86 3e3fe8d1 3c9bc0f5 3e214868 3e4e5992 3e8c9f83 3da48013 bd08f539 3d32c378 be5b681b bbb176a3 be314880 bea3e669 bd923918 bea40d4c bd908b56 3d674f6d 3e465048 3c171f45 bf05e7c4 beb04834 3eb5d61b bf057535 3eaf6d08 3d5e16c4 bd036ab7 3da66ce3 3d8988de be7cd240 bd8da452 3c8df72c be95bfea bdd60362 be82b722 3dc24057 bcdc7a90 3e459cb2 3d48ea86 bdce0e86 3e8565fa 3e2aaf14 bd87d23f 3dac4895 3e0e12ea 3e54032d 3d40edea 3d9e7bea 3d9db911 bd8bd6cb 3d5a2901 bd9aa750 bd524e70 bbe4041b 3e57b094 b92df6ec 3e0793ed 3eae18a3 3e440fd2 3c4a5caf 3ebac63a 3eb080eb be4ad5da 3d1720d4 be08070f 3edc9a04 3ec64a7e 3c08f227 3ee73aef 3e98aa23 3d97953b 3da453b5 3e55f0b1 3c0238f0 be3ceffa bdb38076 3d0f738a bdc8ea04 beafa698 3deb0f54 bde34610 bd067a85 3de6e71f bd99e14c 3dd61f49 3e2b4a5d 3c5427da 3e0ac576 3d32e7b7 3d6486bf be56a423 3b8b4d1f be7c2142 be4ce053 3d5bd055 be1c8912 bd83b606 3efa63ed 3dcf4e6c bee24fbb bd9bdeea bdd12f64 bea784eb beb2663b bdfd0ae7 be9943a6 be6b0ff2 bd22502f be324755 3c32f21b 3e40ecda 3eaacca2 be44cacf 3eca94a4 3ec0da08 bf00efae 3dd46995 3d8735ff be4ee2c5 bd27299b 3babb5af be134a24 3e18cab7 3e8fbead bc9628bd bd7441a0 bca947b9 3ddb4203 be5e6361 bf59decb bdad3762 be1cc95f be1af0b3 be250fe5 bcf7adbc be141cb2 bdd3bf60 be3365a0 bdddaa6a bdb046bb bd2044c5 be389693 3d72a8e6 be8bfd46 be11d78c bdff2272 bf433744 bf30560e be97c23d 3d7f762d bde1275d 3d460f36 be923d0f bdda4807 be1c9f23 bdc1ac1e beb47aa5 be230adb bc193568 bed6e751 bda4f687 bdc59431 3e433e38 3e59ccf6 3e1db3ac 3e00021c bd8419bd bd07f89b be6209ea be941d53 3e2a3bb4 beb4eb70 3e2ba7fd 3d437dcf be8c509d bd544926 3defb68d bb80ec90 3e2c31aa 3dfc5260 3dddd95d bf10f365 bcde5e21 bf1874dc bf281990 3d834b01 be426701 beb69c4a bc9dca4a bce9a0ce 3cdb8380 be0b8eb8 3de61fa9 3e3d258f be0b7207 be1ff679 be30e8c1 bda0f5c2 3e0e9fd6 be45f0b9 be96eb9e bab9173a bf00a40c 3c40ee58 be738122 bf007afe bea0d25d bcae33c3 bc962670 3d2c2bee 3e7fe176 3e9cd2a3 3e07ee03 3e9a2a76 3d9099d6 bcb34e90 3df57008 bdf6e55d bdcf0333 be93f638 3e58384e bd43bc9c bedab319 be444ee9 3c2312c2 be266e74 3e5f5616 3e45c933 be03085d be1b9ec3 3d9eedea 3d1765ec 3cb8466c bdb69f9a be094002 bed3cffd bd7b9971 bc4d085a becd35a9 3d004250 bd65e362 be4075db 3e20d07b 3e26757d 3e378fe2 3c4ce3f5 3ef74455 bcc69094 3db781b5 3d888912 3c6cb836 3e0214cc 3d8127de 3e1d2a60 bd747fca bdcf685e 3e416d30 be1597a2 3ede717a bd18867c be8b9a7a bcc3e147 3e07f7d4 3d97eff1 3ebc5c5f 3f394cb8 3e796766 3e6a3693 3ec13ec0 3d0f63c1 bdc1f085 bd1b679c 3e07f7f0 3e3a09ac bf023702 3de6c7b4 3dced616 be5ef6a4 3e0e5430 bd8b8032 be84302e 3e039b92 bdf744ec beee200c 3e1f6e7c bd827572 be2e7461 3db90a33 bdbdfa3e 3d4d1d66 3d43f3cb be2cc276 be2b5ca7 3df02ca6 bba1ddd9 bd37bb7e 3e7a70d7 3cccff58 3e03f7f3 3e0e569b bed037d7 bd591b1e 3e7e00e2 be0adb12 3cd27815 be8f1eee bebf8f0c be81d035 bf4f0cf2 be044faa bc619377 bc716667 3e576d97 3c71bb6a 3d69e4b3 bd024a29 3e2a57a3 bdba7279 bc81faa2 3c903260 bda3f4f6 3ae3ea4e bcfbab22 be0b4573 bd16edf3 3e0ab27f bdad4a36 3f1a6fd1 3ecdd851 bc846081 bd1b10a6 3ca93eb7 3e491636 3e336fd2 bcea6168 bd1f2292 3dc231c1 be6678bb bd18b8a9 3de6c47f be1be0ae bee35d55 3d1427ca 3eb2769e be11870e 3edaa798 3ee49bc1 bd388f58 3eb5e55a 3d65f978 bc48c811 be91f669 bd8cae72 3e59e2cf be612078 3c813024 3e4db0da 3e0db9f9 3e172187 3d88fa3a bdb6bb32 bc73368d 3ec90ba0 3b86f274 3d35e502 3d50d1ce bd48aa77 be10d09e bd597471 3dddc9e4 be886cfc 3e94b86e 3ed167ea be7b4fcf bdcc7201 3d7d7a9a be88a9c0 3dea9f20 3dff10a7 3e5887c8 bcf9a719 be83220e 3eab8c3d bd703f73 be061833 bdcb2adc be024f54 be482ce2 beedb09f bcde9429 3e52757e bec93795 be4763cf bef5434a be8ffc22 be8ded5f be9a3802 bc6d1ed5 3d9d052e 3e96c977 bef6bdba 3e1797cb 3e81e414 be9708dc 3e4e22b3 3d8c3d51 be95f04a 3da73728 be44569d bdd9cca5 3e35ae0d 3ce3ed63 3c4f4dc5 bd819bef bd3c0fb6 bd4da1e9 bf8ce7be bedf75e6 bd258f0a 3e038582 3e308a62 bcab811e 3ddd0d1a 3e960aa0 3ac7b1a6 3d9e8e34 3eadeb66 3da87d64 bdc15188 bd90e1e0 bec8578d 3d9fc18a 3e1b6730 bdc2c8ab be00f2ac bcd09d46 be53ef28 be6091d5 bed6f5d2 be1a6af9
feature_net.conv1.2.bn.weight 16  3f591c34 3fb2723d 3f293ec5 3f6a8b0f 3fdc1ef2 3f951ac4 3f7176ba 3f5a4363 3fc8dc7f 3fe4554d 3f807d34 3f57d858 3f98834d 3fad8170 3f8b1023 3fbeadb5
feature_net.conv1.2.bn.bias 16  3e4ee0c9 3eee512f 3ea2e3e3 3d7b1de9 bd691e18 3e2ebae7 3e9b61a6 3f57ab92 be0def8e bf34991d 3e3c3ffa 3e90f570 bbb32091 3cd4a4f2 3e7d4def be853003
feature_net.conv1.2.bn.running_mean 16  3f79d872 c0982cac c00cfb01 bf974463 c0a97c2d bf25c696 3f97befb c00c72fb c00b279f c06ff24c c0462b8d 3f1e0241 c000e2f2 bfe3a056 bfc78dc5 c027affb
feature_net.conv1.2.bn.running_var 16  40defb93 414b2e1b 40def7ea 411c2fdf 416bf305 40f4121d 40b13ec1 412f8c07 4174f5ed 413a2c93 41045f0c 405f1050 410ad3ac 41434532 40f2df5d 413088cc
feature_net.conv1.2.bn.num_batches_tracked 1  46b2e800
